{
  "version": "1.0",
  "truncation": null,
  "padding": null,
  "added_tokens": [
    {
      "id": 0,
      "content": "<unk>",
      "single_word": false,
      "lstrip": false,
      "rstrip": false,
      "normalized": false,
      "special": true
    },
    {
      "id": 1,
      "content": "<s>",
      "single_word": false,
      "lstrip": false,
      "rstrip": false,
      "normalized": false,
      "special": true
    },
    {
      "id": 2,
      "content": "</s>",
      "single_word": false,
      "lstrip": false,
      "rstrip": false,
      "normalized": false,
      "special": true
    },
    {
      "id": 3,
      "content": "<pad>",
      "single_word": false,
      "lstrip": false,
      "rstrip": false,
      "normalized": false,
      "special": true
    }
  ],
  "normalizer": null,
  "pre_tokenizer": {
    "type": "Metaspace",
    "replacement": "▁",
    "add_prefix_space": true
  },
  "post_processor": {
    "type": "TemplateProcessing",
    "single": [
      {
        "SpecialToken": {
          "id": "<s>",
          "type_id": 0
        }
      },
      {
        "Sequence": {
          "id": "A",
          "type_id": 0
        }
      },
      {
        "SpecialToken": {
          "id": "</s>",
          "type_id": 0
        }
      }
    ],
    "pair": [
      {
        "SpecialToken": {
          "id": "<s>",
          "type_id": 0
        }
      },
      {
        "Sequence": {
          "id": "A",
          "type_id": 0
        }
      },
      {
        "SpecialToken": {
          "id": "</s>",
          "type_id": 0
        }
      },
      {
        "Sequence": {
          "id": "B",
          "type_id": 0
        }
      },
      {
        "SpecialToken": {
          "id": "</s>",
          "type_id": 0
        }
      }
    ],
    "special_tokens": {
      "</s>": {
        "id": "</s>",
        "ids": [
          2
        ],
        "tokens": [
          "</s>"
        ]
      },
      "<s>": {
        "id": "<s>",
        "ids": [
          1
        ],
        "tokens": [
          "<s>"
        ]
      }
    }
  },
  "decoder": null,
  "model": {
    "type": "BPE",
    "dropout": null,
    "unk_token": "<unk>",
    "continuing_subword_prefix": null,
    "end_of_word_suffix": null,
    "fuse_unk": false,
    "vocab": {
      "<unk>": 0,
      "<s>": 1,
      "</s>": 2,
      "<pad>": 3,
      "\n": 4,
      "!": 5,
      ".": 6,
      "?": 7,
      "a": 8,
      "b": 9,
      "c": 10,
      "d": 11,
      "e": 12,
      "f": 13,
      "g": 14,
      "h": 15,
      "i": 16,
      "j": 17,
      "k": 18,
      "l": 19,
      "m": 20,
      "n": 21,
      "o": 22,
      "p": 23,
      "q": 24,
      "r": 25,
      "s": 26,
      "t": 27,
      "u": 28,
      "v": 29,
      "w": 30,
      "x": 31,
      "y": 32,
      "z": 33,
      "▁": 34,
      "▁.": 35,
      "▁.\n": 36,
      "▁i": 37,
      "re": 38,
      "▁a": 39,
      "▁t": 40,
      "he": 41,
      "▁m": 42,
      "ou": 43,
      "▁s": 44,
      "▁re": 45,
      "▁y": 46,
      "▁you": 47,
      "in": 48,
      "ing": 49,
      "▁w": 50,
      "▁he": 51,
      "er": 52,
      "▁n": 53,
      "▁to": 54,
      "▁no": 55,
      "▁the": 56,
      "▁f": 57,
      "▁o": 58,
      "ed": 59,
      "▁not": 60,
      "▁g": 61,
      "▁b": 62,
      "▁is": 63,
      "▁we": 64,
      "or": 65,
      "▁c": 66,
      "ll": 67,
      "en": 68,
      "▁h": 69,
      "at": 70,
      "▁she": 71,
      "▁l": 72,
      "ver": 73,
      "▁d": 74,
      "is": 75,
      "on": 76,
      "ar": 77,
      "▁are": 78,
      "▁p": 79,
      "an": 80,
      "very": 81,
      "▁th": 82,
      "▁of": 83,
      "it": 84,
      "▁go": 85,
      "▁very": 86,
      "▁am": 87,
      "st": 88,
      "▁in": 89,
      "▁they": 90,
      "ri": 91,
      "le": 92,
      "ad": 93,
      "▁st": 94,
      "om": 95,
      "et": 96,
      "ve": 97,
      "▁for": 98,
      "ra": 99,
      "ic": 100,
      "▁be": 101,
      "▁going": 102,
      "▁an": 103,
      "gh": 104,
      "▁su": 105,
      "▁e": 106,
      "▁u": 107,
      "id": 108,
      "▁all": 109,
      "ent": 110,
      "king": 111,
      "ay": 112,
      "▁on": 113,
      "ly": 114,
      "ry": 115,
      "▁my": 116,
      "ss": 117,
      "al": 118,
      "all": 119,
      "▁at": 120,
      "pp": 121,
      "ght": 122,
      "out": 123,
      "od": 124,
      "ld": 125,
      "im": 126,
      "▁me": 127,
      "▁ha": 128,
      "ch": 129,
      "▁al": 130,
      "red": 131,
      "ith": 132,
      "▁as": 133,
      "▁j": 134,
      "▁with": 135,
      "ro": 136,
      "▁lo": 137,
      "her": 138,
      "▁here": 139,
      "ea": 140,
      "▁that": 141,
      "ous": 142,
      "ble": 143,
      "▁good": 144,
      "us": 145,
      "am": 146,
      "▁your": 147,
      "one": 148,
      "un": 149,
      "es": 150,
      "ul": 151,
      "ut": 152,
      "ct": 153,
      "▁sor": 154,
      "ust": 155,
      "end": 156,
      "ist": 157,
      "▁so": 158,
      "ill": 159,
      "▁sorry": 160,
      "▁li": 161,
      "ee": 162,
      "ally": 163,
      "ir": 164,
      "ot": 165,
      "▁wor": 166,
      "▁too": 167,
      "▁this": 168,
      "▁gl": 169,
      "ome": 170,
      "▁ab": 171,
      "ppy": 172,
      "▁glad": 173,
      "▁do": 174,
      "ting": 175,
      "▁k": 176,
      "▁fri": 177,
      "ck": 178,
      "▁happy": 179,
      "▁it": 180,
      "▁ri": 181,
      "ired": 182,
      "rou": 183,
      "▁sh": 184,
      "▁than": 185,
      "▁stu": 186,
      "▁af": 187,
      "ke": 188,
      "▁old": 189,
      "▁tom": 190,
      "▁ch": 191,
      "▁friend": 192,
      "▁now": 193,
      "ive": 194,
      "ow": 195,
      "ain": 196,
      "ving": 197,
      "ful": 198,
      "▁him": 199,
      "▁about": 200,
      "▁un": 201,
      "▁out": 202,
      "▁de": 203,
      "ays": 204,
      "?\n": 205,
      "▁?\n": 206,
      "ter": 207,
      "▁aren": 208,
      "ce": 209,
      "▁ne": 210,
      "raid": 211,
      "▁afraid": 212,
      "▁tired": 213,
      "ind": 214,
      "▁sure": 215,
      "as": 216,
      "ion": 217,
      "ol": 218,
      "▁right": 219,
      "▁really": 220,
      "oking": 221,
      "▁bus": 222,
      "▁en": 223,
      "ard": 224,
      "▁still": 225,
      "▁one": 226,
      "▁con": 227,
      "▁busy": 228,
      "▁see": 229,
      "▁read": 230,
      "ate": 231,
      "▁just": 232,
      "se": 233,
      "▁tea": 234,
      "▁her": 235,
      "▁any": 236,
      "il": 237,
      "▁his": 238,
      "ore": 239,
      "te": 240,
      "ried": 241,
      "ong": 242,
      "ways": 243,
      "▁always": 244,
      "▁com": 245,
      "hing": 246,
      "▁up": 247,
      "fe": 248,
      "ress": 249,
      "ight": 250,
      "▁get": 251,
      "▁stud": 252,
      "ying": 253,
      "▁us": 254,
      "▁looking": 255,
      "▁sm": 256,
      "ers": 257,
      "ge": 258,
      "▁r": 259,
      "▁bo": 260,
      "▁co": 261,
      "ast": 262,
      "mp": 263,
      "ted": 264,
      "ish": 265,
      "▁ex": 266,
      "ig": 267,
      "ious": 268,
      "ning": 269,
      "▁wh": 270,
      "▁fre": 271,
      "▁by": 272,
      "▁ready": 273,
      "ty": 274,
      "▁mar": 275,
      "▁home": 276,
      "cher": 277,
      "gry": 278,
      "lp": 279,
      "rom": 280,
      "▁sa": 281,
      "▁help": 282,
      "▁pre": 283,
      "▁teacher": 284,
      "ur": 285,
      "our": 286,
      "▁sp": 287,
      "art": 288,
      "ear": 289,
      "▁tall": 290,
      "▁youn": 291,
      "▁di": 292,
      "!\n": 293,
      "ger": 294,
      "▁!\n": 295,
      "▁man": 296,
      "ice": 297,
      "ame": 298,
      "▁being": 299,
      "aking": 300,
      "os": 301,
      "rong": 302,
      "▁tal": 303,
      "▁from": 304,
      "▁pl": 305,
      "▁getting": 306,
      "able": 307,
      "der": 308,
      "▁tim": 309,
      "▁fin": 310,
      "▁cl": 311,
      "▁and": 312,
      "and": 313,
      "ack": 314,
      "▁res": 315,
      "ick": 316,
      "▁student": 317,
      "qu": 318,
      "ant": 319,
      "iting": 320,
      "ild": 321,
      "ated": 322,
      "▁pro": 323,
      "▁have": 324,
      "▁married": 325,
      "▁imp": 326,
      "▁dis": 327,
      "▁alone": 328,
      "▁kind": 329,
      "ak": 330,
      "zy": 331,
      "hed": 332,
      "ating": 333,
      "▁child": 334,
      "ressed": 335,
      "▁ag": 336,
      "ather": 337,
      "aying": 338,
      "▁work": 339,
      "▁doing": 340,
      "ap": 341,
      "are": 342,
      "▁sw": 343,
      "▁prou": 344,
      "▁inte": 345,
      "▁proud": 346,
      "ep": 347,
      "▁ar": 348,
      "▁lea": 349,
      "ell": 350,
      "▁wa": 351,
      "▁po": 352,
      "lf": 353,
      "▁tra": 354,
      "▁dr": 355,
      "▁pers": 356,
      "▁like": 357,
      "▁comp": 358,
      "ough": 359,
      "▁sc": 360,
      "ort": 361,
      "▁inv": 362,
      "▁new": 363,
      "▁who": 364,
      "▁young": 365,
      "ok": 366,
      "thing": 367,
      "▁bot": 368,
      "▁hun": 369,
      "▁late": 370,
      "▁off": 371,
      "▁every": 372,
      "▁waiting": 373,
      "row": 374,
      "ny": 375,
      "▁gir": 376,
      "▁bl": 377,
      "▁bea": 378,
      "▁such": 379,
      "ff": 380,
      "ient": 381,
      "ris": 382,
      "▁back": 383,
      "▁sur": 384,
      "▁person": 385,
      "ling": 386,
      "▁yet": 387,
      "▁fa": 388,
      "arly": 389,
      "▁love": 390,
      "▁friends": 391,
      "▁hungry": 392,
      "day": 393,
      "est": 394,
      "more": 395,
      "▁aw": 396,
      "▁fo": 397,
      "▁anymore": 398,
      "ian": 399,
      "ved": 400,
      "rest": 401,
      "▁cle": 402,
      "▁liar": 403,
      "▁eng": 404,
      "▁beaut": 405,
      "lish": 406,
      "no": 407,
      "wn": 408,
      "▁over": 409,
      "▁gu": 410,
      "▁cra": 411,
      "▁working": 412,
      "▁pret": 413,
      "▁time": 414,
      "▁again": 415,
      "ru": 416,
      "▁ad": 417,
      "▁sick": 418,
      "ine": 419,
      "▁fam": 420,
      "▁fun": 421,
      "▁done": 422,
      "leep": 423,
      "etter": 424,
      "ward": 425,
      "▁our": 426,
      "▁qu": 427,
      "▁if": 428,
      "▁can": 429,
      "▁dan": 430,
      "ite": 431,
      "ited": 432,
      "ented": 433,
      "▁under": 434,
      "▁free": 435,
      "ible": 436,
      "▁try": 437,
      "▁fee": 438,
      "▁hard": 439,
      "▁lit": 440,
      "ching": 441,
      "▁sho": 442,
      "ake": 443,
      "ost": 444,
      "tle": 445,
      "▁tw": 446,
      "▁sing": 447,
      "▁big": 448,
      "aring": 449,
      "less": 450,
      "▁forward": 451,
      "▁interest": 452,
      "▁girl": 453,
      "ab": 454,
      "get": 455,
      "man": 456,
      "th": 457,
      "ther": 458,
      "ren": 459,
      "▁same": 460,
      "ract": 461,
      "▁att": 462,
      "▁pretty": 463,
      "ag": 464,
      "ob": 465,
      "uck": 466,
      "▁wat": 467,
      "▁will": 468,
      "▁bro": 469,
      "▁strong": 470,
      "▁early": 471,
      "▁only": 472,
      "▁worried": 473,
      "▁dead": 474,
      "▁used": 475,
      "▁little": 476,
      "iful": 477,
      "▁today": 478,
      "orrow": 479,
      "ation": 480,
      "ons": 481,
      "▁thin": 482,
      "▁tomorrow": 483,
      "▁enough": 484,
      "▁beautiful": 485,
      "ared": 486,
      "mb": 487,
      "nd": 488,
      "▁trou": 489,
      "▁more": 490,
      "▁sleep": 491,
      "▁year": 492,
      "▁car": 493,
      "▁la": 494,
      "app": 495,
      "de": 496,
      "ked": 497,
      "pris": 498,
      "▁bit": 499,
      "▁bad": 500,
      "▁well": 501,
      "▁leaving": 502,
      "▁surpris": 503,
      "▁years": 504,
      "pe": 505,
      "ert": 506,
      "▁but": 507,
      "rave": 508,
      "ute": 509,
      "▁coming": 510,
      "▁taller": 511,
      "osed": 512,
      "▁feeling": 513,
      "▁trouble": 514,
      "▁surprised": 515,
      "cce": 516,
      "▁making": 517,
      "ined": 518,
      "▁there": 519,
      "▁father": 520,
      "▁luck": 521,
      "▁supp": 522,
      "unk": 523,
      "ult": 524,
      "▁english": 525,
      "ced": 526,
      "ie": 527,
      "▁mo": 528,
      "▁sk": 529,
      "▁wrong": 530,
      "▁isn": 531,
      "iss": 532,
      "ished": 533,
      "ity": 534,
      "▁beh": 535,
      "ese": 536,
      "ctor": 537,
      "▁drunk": 538,
      "▁both": 539,
      "▁crazy": 540,
      "▁funny": 541,
      "▁trying": 542,
      "fi": 543,
      "ner": 544,
      "nch": 545,
      "oin": 546,
      "ure": 547,
      "▁v": 548,
      "▁mu": 549,
      "▁mad": 550,
      "▁gre": 551,
      "▁better": 552,
      "▁per": 553,
      "▁angry": 554,
      "▁job": 555,
      "eak": 556,
      "▁ru": 557,
      "▁french": 558,
      "▁swim": 559,
      "▁clever": 560,
      "▁interested": 561,
      "fied": 562,
      "iz": 563,
      "▁ac": 564,
      "▁sl": 565,
      "▁le": 566,
      "ise": 567,
      "▁ple": 568,
      "▁part": 569,
      "▁star": 570,
      "▁succe": 571,
      "▁having": 572,
      "▁doctor": 573,
      "ased": 574,
      "▁anything": 575,
      "▁safe": 576,
      "▁talented": 577,
      "▁invited": 578,
      "▁supposed": 579,
      "ha": 580,
      "most": 581,
      "og": 582,
      "set": 583,
      "▁ter": 584,
      "▁se": 585,
      "▁som": 586,
      "▁rel": 587,
      "▁wom": 588,
      "erv": 589,
      "▁op": 590,
      "▁bu": 591,
      "▁cu": 592,
      "▁hur": 593,
      "arter": 594,
      "▁par": 595,
      "▁best": 596,
      "▁almost": 597,
      "▁jap": 598,
      "▁upset": 599,
      "▁smarter": 600,
      "▁disapp": 601,
      "▁behind": 602,
      "▁much": 603,
      "▁somet": 604,
      "▁japan": 605,
      "ies": 606,
      "ned": 607,
      "per": 608,
      "▁way": 609,
      "▁nice": 610,
      "▁brave": 611,
      "ens": 612,
      "▁lear": 613,
      "ond": 614,
      "usted": 615,
      "istic": 616,
      "▁kn": 617,
      "▁conf": 618,
      "▁playing": 619,
      "▁guy": 620,
      "ointed": 621,
      "▁disappointed": 622,
      "bed": 623,
      "cer": 624,
      "dic": 625,
      "el": 626,
      "ph": 627,
      "pid": 628,
      "▁taking": 629,
      "▁some": 630,
      "ath": 631,
      "▁thir": 632,
      "itting": 633,
      "stand": 634,
      "▁meet": 635,
      "oney": 636,
      "▁kid": 637,
      "round": 638,
      "▁stupid": 639,
      "▁oldest": 640,
      "▁smart": 641,
      "▁finished": 642,
      "▁impressed": 643,
      "akes": 644,
      "▁danger": 645,
      "▁understand": 646,
      "ass": 647,
      "eet": 648,
      "ily": 649,
      "▁mus": 650,
      "▁money": 651,
      "▁sat": 652,
      "ering": 653,
      "▁cou": 654,
      "▁care": 655,
      "▁cert": 656,
      "ening": 657,
      "▁dri": 658,
      "ide": 659,
      "▁reading": 660,
      "self": 661,
      "▁resp": 662,
      "▁students": 663,
      "▁attract": 664,
      "▁pleased": 665,
      "▁woman": 666,
      "▁certain": 667,
      "gu": 668,
      "ms": 669,
      "ree": 670,
      "read": 671,
      "▁age": 672,
      "▁mist": 673,
      "▁their": 674,
      "▁fu": 675,
      "rious": 676,
      "owed": 677,
      "▁boy": 678,
      "▁trained": 679,
      "▁quite": 680,
      "▁brother": 681,
      "▁sleepy": 682,
      "▁japanese": 683,
      "ose": 684,
      "▁tr": 685,
      "▁ten": 686,
      "▁tell": 687,
      "inning": 688,
      "▁tot": 689,
      "▁come": 690,
      "isfied": 691,
      "▁inc": 692,
      "▁int": 693,
      "▁beg": 694,
      "cting": 695,
      "ower": 696,
      "▁del": 697,
      "▁seeing": 698,
      "asting": 699,
      "▁terri": 700,
      "▁curious": 701,
      "▁music": 702,
      "▁respons": 703,
      "ib": 704,
      "ming": 705,
      "pt": 706,
      "wor": 707,
      "xt": 708,
      "▁ro": 709,
      "▁miss": 710,
      "▁wise": 711,
      "▁ob": 712,
      "▁own": 713,
      "▁wearing": 714,
      "amed": 715,
      "other": 716,
      "▁rich": 717,
      "▁short": 718,
      "▁next": 719,
      "▁cold": 720,
      "▁timid": 721,
      "▁everything": 722,
      "▁addic": 723,
      "▁lazy": 724,
      "▁lucky": 725,
      "▁know": 726,
      "▁attractive": 727,
      "ac": 728,
      "ager": 729,
      "iving": 730,
      "▁wr": 731,
      "▁them": 732,
      "▁fl": 733,
      "▁call": 734,
      "atient": 735,
      "▁long": 736,
      "▁lying": 737,
      "rass": 738,
      "▁eating": 739,
      "▁ash": 740,
      "▁run": 741,
      "▁exha": 742,
      "▁what": 743,
      "▁speak": 744,
      "▁talk": 745,
      "▁fine": 746,
      "▁poor": 747,
      "▁something": 748,
      "▁exhausted": 749,
      "lain": 750,
      "med": 751,
      "oke": 752,
      "xious": 753,
      "▁mine": 754,
      "▁head": 755,
      "▁nor": 756,
      "▁dist": 757,
      "arrass": 758,
      "itive": 759,
      "▁emb": 760,
      "ody": 761,
      "▁alread": 762,
      "▁living": 763,
      "▁abs": 764,
      "▁older": 765,
      "ional": 766,
      "▁studying": 767,
      "▁leave": 768,
      "▁scared": 769,
      "▁fool": 770,
      "ably": 771,
      "rent": 772,
      "▁watching": 773,
      "▁thinking": 774,
      "▁hurt": 775,
      "▁satisfied": 776,
      "▁careful": 777,
      "▁ashamed": 778,
      "▁embarrass": 779,
      "▁already": 780,
      "ffe": 781,
      "ran": 782,
      "▁id": 783,
      "▁able": 784,
      "▁sn": 785,
      "▁ser": 786,
      "▁wasting": 787,
      "▁fast": 788,
      "▁gen": 789,
      "▁dressed": 790,
      "▁thing": 791,
      "lete": 792,
      "vel": 793,
      "▁je": 794,
      "▁lost": 795,
      "uth": 796,
      "▁soph": 797,
      "olved": 798,
      "ighted": 799,
      "▁diffe": 800,
      "▁close": 801,
      "▁children": 802,
      "▁complain": 803,
      "▁complete": 804,
      "▁involved": 805,
      "ffic": 806,
      "▁skin": 807,
      "isticated": 808,
      "▁sophisticated": 809,
      "▁different": 810,
      "age": 811,
      "op": 812,
      "▁ra": 813,
      "▁was": 814,
      "▁fat": 815,
      "▁fas": 816,
      "▁fond": 817,
      "▁bre": 818,
      "ened": 819,
      "▁list": 820,
      "ical": 821,
      "▁been": 822,
      "alth": 823,
      "pping": 824,
      "ghtened": 825,
      "▁liked": 826,
      "▁frightened": 827,
      "▁after": 828,
      "▁char": 829,
      "▁dep": 830,
      "▁talking": 831,
      "▁two": 832,
      "▁rude": 833,
      "ensitive": 834,
      "▁learning": 835,
      "▁totally": 836,
      "▁delighted": 837,
      "▁skinny": 838,
      "bit": 839,
      "bably": 840,
      "cent": 841,
      "come": 842,
      "ding": 843,
      "for": 844,
      "ging": 845,
      "ire": 846,
      "mal": 847,
      "nt": 848,
      "night": 849,
      "▁ve": 850,
      "▁te": 851,
      "▁real": 852,
      "▁won": 853,
      "▁wal": 854,
      "▁hear": 855,
      "▁hero": 856,
      "▁tonight": 857,
      "▁giving": 858,
      "▁che": 859,
      "llig": 860,
      "▁hand": 861,
      "ative": 862,
      "▁dying": 863,
      "ary": 864,
      "sty": 865,
      "▁ev": 866,
      "alous": 867,
      "used": 868,
      "ustom": 869,
      "fect": 870,
      "▁book": 871,
      "urbed": 872,
      "▁younger": 873,
      "▁class": 874,
      "▁probably": 875,
      "▁sweet": 876,
      "▁intellig": 877,
      "▁art": 878,
      "▁drin": 879,
      "▁aware": 880,
      "▁family": 881,
      "▁success": 882,
      "▁self": 883,
      "▁longer": 884,
      "▁running": 885,
      "▁normal": 886,
      "▁disturbed": 887,
      "▁serious": 888,
      "▁jealous": 889,
      "▁completely": 890,
      "▁listening": 891,
      "▁intelligent": 892,
      "au": 893,
      "air": 894,
      "body": 895,
      "ix": 896,
      "lcome": 897,
      "my": 898,
      "vin": 899,
      "▁ast": 900,
      "▁around": 901,
      "▁tur": 902,
      "▁make": 903,
      "eric": 904,
      "▁nut": 905,
      "▁far": 906,
      "▁or": 907,
      "▁welcome": 908,
      "▁hous": 909,
      "▁don": 910,
      "▁des": 911,
      "▁pain": 912,
      "▁power": 913,
      "▁americ": 914,
      "▁ins": 915,
      "▁inno": 916,
      "▁staying": 917,
      "▁anxious": 918,
      "▁em": 919,
      "▁eas": 920,
      "ident": 921,
      "▁lot": 922,
      "rough": 923,
      "▁never": 924,
      "▁cont": 925,
      "▁concer": 926,
      "▁boss": 927,
      "▁coll": 928,
      "▁die": 929,
      "▁plan": 930,
      "▁play": 931,
      "▁proble": 932,
      "ize": 933,
      "▁acc": 934,
      "▁open": 935,
      "▁confused": 936,
      "▁thirsty": 937,
      "▁responsible": 938,
      "▁embarrassed": 939,
      "▁wonder": 940,
      "aught": 941,
      "vinced": 942,
      "▁nuts": 943,
      "▁concerned": 944,
      "bor": 945,
      "ci": 946,
      "ek": 947,
      "emy": 948,
      "gs": 949,
      "igh": 950,
      "oy": 951,
      "▁app": 952,
      "▁tv": 953,
      "▁ty": 954,
      "▁mother": 955,
      "inner": 956,
      "erous": 957,
      "▁nerv": 958,
      "▁gent": 959,
      "▁week": 960,
      "▁cre": 961,
      "▁dut": 962,
      "▁ph": 963,
      "▁sto": 964,
      "▁stran": 965,
      "▁forget": 966,
      "▁anno": 967,
      "▁suff": 968,
      "▁alive": 969,
      "▁enemy": 970,
      "▁seems": 971,
      "▁bored": 972,
      "▁cook": 973,
      "▁said": 974,
      "▁shopping": 975,
      "▁twice": 976,
      "gether": 977,
      "▁think": 978,
      "▁mood": 979,
      "▁perfect": 980,
      "▁full": 981,
      "▁beginning": 982,
      "▁terrible": 983,
      "▁addicted": 984,
      "bitious": 985,
      "▁emot": 986,
      "▁nervous": 987,
      "▁gentle": 988,
      "▁duty": 989,
      "aid": 990,
      "aive": 991,
      "ail": 992,
      "fty": 993,
      "iot": 994,
      "mer": 995,
      "nis": 996,
      "ool": 997,
      "▁ll": 998,
      "▁son": 999,
      "▁sad": 1000,
      "▁side": 1001,
      "erg": 1002,
      "▁night": 1003,
      "▁naive": 1004,
      "▁together": 1005,
      "▁fight": 1006,
      "▁ok": 1007,
      "▁cat": 1008,
      "▁cute": 1009,
      "▁ho": 1010,
      "▁hone": 1011,
      "▁hot": 1012,
      "▁lone": 1013,
      "chool": 1014,
      "▁life": 1015,
      "▁death": 1016,
      "▁need": 1017,
      "▁convinced": 1018,
      "gest": 1019,
      "▁single": 1020,
      "▁great": 1021,
      "▁starting": 1022,
      "▁understanding": 1023,
      "▁trust": 1024,
      "▁tennis": 1025,
      "▁incred": 1026,
      "▁idiot": 1027,
      "▁artist": 1028,
      "▁house": 1029,
      "▁emotional": 1030,
      "▁lonely": 1031,
      "ach": 1032,
      "ched": 1033,
      "go": 1034,
      "ip": 1035,
      "iv": 1036,
      "iar": 1037,
      "loy": 1038,
      "ment": 1039,
      "sing": 1040,
      "ually": 1041,
      "▁ent": 1042,
      "▁ill": 1043,
      "▁tough": 1044,
      "▁tru": 1045,
      "▁sist": 1046,
      "▁sitting": 1047,
      "▁reas": 1048,
      "▁novel": 1049,
      "▁fir": 1050,
      "▁other": 1051,
      "▁gr": 1052,
      "▁gone": 1053,
      "▁cow": 1054,
      "ence": 1055,
      "athe": 1056,
      "▁letter": 1057,
      "▁day": 1058,
      "▁daught": 1059,
      "▁pris": 1060,
      "▁through": 1061,
      "ves": 1062,
      "▁mean": 1063,
      "▁joking": 1064,
      "▁word": 1065,
      "cked": 1066,
      "▁shy": 1067,
      "▁stuck": 1068,
      "inded": 1069,
      "▁team": 1070,
      "iliar": 1071,
      "▁exp": 1072,
      "▁ext": 1073,
      "▁impatient": 1074,
      "▁worker": 1075,
      "▁likely": 1076,
      "▁famous": 1077,
      "▁familiar": 1078,
      "▁succeed": 1079,
      "perate": 1080,
      "▁generous": 1081,
      "▁complaining": 1082,
      "▁desperate": 1083,
      "▁american": 1084,
      "▁innocent": 1085,
      "▁colle": 1086,
      "▁accustom": 1087,
      "▁wonderful": 1088,
      "▁annoying": 1089,
      "▁gentleman": 1090,
      "▁honest": 1091,
      "▁coward": 1092,
      "▁prison": 1093,
      "az": 1094,
      "dd": 1095,
      "gn": 1096,
      "gress": 1097,
      "ia": 1098,
      "iver": 1099,
      "led": 1100,
      "ne": 1101,
      "nting": 1102,
      "sp": 1103,
      "sy": 1104,
      "ten": 1105,
      "ream": 1106,
      "▁act": 1107,
      "hered": 1108,
      "▁sensitive": 1109,
      "▁school": 1110,
      "▁ret": 1111,
      "▁wre": 1112,
      "▁health": 1113,
      "▁fe": 1114,
      "▁fed": 1115,
      "▁last": 1116,
      "▁dress": 1117,
      "▁dream": 1118,
      "▁pol": 1119,
      "▁pract": 1120,
      "▁three": 1121,
      "▁often": 1122,
      "riend": 1123,
      "▁sty": 1124,
      "▁eager": 1125,
      "iding": 1126,
      "▁allowed": 1127,
      "▁asking": 1128,
      "rover": 1129,
      "▁losing": 1130,
      "▁yours": 1131,
      "▁yourself": 1132,
      "esome": 1133,
      "▁showed": 1134,
      "aint": 1135,
      "ceful": 1136,
      "olog": 1137,
      "▁enj": 1138,
      "▁cons": 1139,
      "ilient": 1140,
      "ility": 1141,
      "▁rather": 1142,
      "▁clos": 1143,
      "▁resilient": 1144,
      "▁bothered": 1145,
      "▁awesome": 1146,
      "▁crafty": 1147,
      "▁singer": 1148,
      "▁broke": 1149,
      "▁acqu": 1150,
      "▁slow": 1151,
      "ervant": 1152,
      "▁kidding": 1153,
      "▁driving": 1154,
      "▁telling": 1155,
      "work": 1156,
      "▁writing": 1157,
      "▁problem": 1158,
      "▁suffering": 1159,
      "▁sister": 1160,
      "▁daughter": 1161,
      "▁college": 1162,
      "▁accustomed": 1163,
      "band": 1164,
      "cin": 1165,
      "oying": 1166,
      "rit": 1167,
      "servant": 1168,
      "▁av": 1169,
      "▁tri": 1170,
      "▁mor": 1171,
      "▁mon": 1172,
      "▁makes": 1173,
      "ins": 1174,
      "▁win": 1175,
      "▁war": 1176,
      "▁find": 1177,
      "▁bed": 1178,
      "▁weak": 1179,
      "▁cour": 1180,
      "▁cap": 1181,
      "llow": 1182,
      "▁hus": 1183,
      "▁hiding": 1184,
      "▁dinner": 1185,
      "▁paid": 1186,
      "▁got": 1187,
      "ader": 1188,
      "aded": 1189,
      "pped": 1190,
      "ended": 1191,
      "▁down": 1192,
      "▁unc": 1193,
      "olute": 1194,
      "fess": 1195,
      "▁smil": 1196,
      "▁homework": 1197,
      "▁prep": 1198,
      "ourceful": 1199,
      "▁spoke": 1200,
      "▁finally": 1201,
      "▁result": 1202,
      "▁resourceful": 1203,
      "icky": 1204,
      "▁prote": 1205,
      "▁profess": 1206,
      "aken": 1207,
      "ape": 1208,
      "▁argu": 1209,
      "▁armed": 1210,
      "▁offended": 1211,
      "▁everybody": 1212,
      "▁black": 1213,
      "▁follow": 1214,
      "ians": 1215,
      "▁clean": 1216,
      "iness": 1217,
      "mance": 1218,
      "aged": 1219,
      "▁law": 1220,
      "▁perfor": 1221,
      "▁leader": 1222,
      "▁buying": 1223,
      "rounded": 1224,
      "▁counting": 1225,
      "▁mistake": 1226,
      "▁into": 1227,
      "ibly": 1228,
      "▁observant": 1229,
      "▁absolute": 1230,
      "▁fascin": 1231,
      "▁hands": 1232,
      "▁selfish": 1233,
      "▁forgetful": 1234,
      "▁incredibly": 1235,
      "▁reason": 1236,
      "▁retired": 1237,
      "▁stylish": 1238,
      "▁enjoying": 1239,
      "▁husband": 1240,
      "▁performance": 1241,
      "aching": 1242,
      "br": 1243,
      "bbor": 1244,
      "eop": 1245,
      "ft": 1246,
      "mat": 1247,
      "oc": 1248,
      "tic": 1249,
      "▁acting": 1250,
      "here": 1251,
      "oud": 1252,
      "ould": 1253,
      "▁sill": 1254,
      "▁sell": 1255,
      "▁saint": 1256,
      "▁town": 1257,
      "▁fit": 1258,
      "▁brou": 1259,
      "▁bab": 1260,
      "▁let": 1261,
      "▁loud": 1262,
      "▁days": 1263,
      "arp": 1264,
      "▁psy": 1265,
      "▁peop": 1266,
      "les": 1267,
      "ety": 1268,
      "▁bec": 1269,
      "▁ey": 1270,
      "alling": 1271,
      "eep": 1272,
      "▁dogs": 1273,
      "▁sharp": 1274,
      "▁stubbor": 1275,
      "ainted": 1276,
      "ilty": 1277,
      "ressing": 1278,
      "▁exc": 1279,
      "▁diffic": 1280,
      "arent": 1281,
      "lfriend": 1282,
      "▁girlfriend": 1283,
      "▁blame": 1284,
      "▁fair": 1285,
      "▁away": 1286,
      "▁guilty": 1287,
      "▁shocked": 1288,
      "▁willing": 1289,
      "eaky": 1290,
      "▁swimming": 1291,
      "▁confident": 1292,
      "▁drive": 1293,
      "▁room": 1294,
      "▁known": 1295,
      "▁speaks": 1296,
      "▁foolish": 1297,
      "▁sneaky": 1298,
      "▁depressed": 1299,
      "▁temp": 1300,
      "▁astute": 1301,
      "▁powerful": 1302,
      "cial": 1303,
      "▁type": 1304,
      "▁entire": 1305,
      "▁first": 1306,
      "▁wreck": 1307,
      "roverted": 1308,
      "▁acquainted": 1309,
      "▁trip": 1310,
      "▁protect": 1311,
      "▁absolutely": 1312,
      "▁silly": 1313,
      "▁brought": 1314,
      "▁baby": 1315,
      "▁people": 1316,
      "▁stubborn": 1317,
      "▁difficult": 1318,
      "ace": 1319,
      "bt": 1320,
      "fety": 1321,
      "ife": 1322,
      "me": 1323,
      "oid": 1324,
      "old": 1325,
      "ps": 1326,
      "sity": 1327,
      "tun": 1328,
      "ub": 1329,
      "um": 1330,
      "ual": 1331,
      "uct": 1332,
      "vor": 1333,
      "yer": 1334,
      "▁im": 1335,
      "rect": 1336,
      "▁tou": 1337,
      "▁ske": 1338,
      "▁rec": 1339,
      "▁yell": 1340,
      "▁winning": 1341,
      "▁hearing": 1342,
      "erk": 1343,
      "▁five": 1344,
      "▁fish": 1345,
      "▁fell": 1346,
      "▁fix": 1347,
      "edy": 1348,
      "▁nothing": 1349,
      "▁gam": 1350,
      "▁game": 1351,
      "▁grow": 1352,
      "▁weight": 1353,
      "▁weather": 1354,
      "orri": 1355,
      "▁came": 1356,
      "enly": 1357,
      "▁hat": 1358,
      "▁dou": 1359,
      "▁did": 1360,
      "▁prom": 1361,
      "▁patient": 1362,
      "ang": 1363,
      "itor": 1364,
      "▁ambitious": 1365,
      "▁forg": 1366,
      "▁fortun": 1367,
      "▁bel": 1368,
      "▁sug": 1369,
      "▁sudd": 1370,
      "▁eat": 1371,
      "▁each": 1372,
      "rying": 1373,
      "▁loved": 1374,
      "ular": 1375,
      "▁sort": 1376,
      "▁soon": 1377,
      "▁cho": 1378,
      "▁chin": 1379,
      "▁chos": 1380,
      "▁und": 1381,
      "▁univer": 1382,
      "ionable": 1383,
      "▁business": 1384,
      "geous": 1385,
      "▁cooking": 1386,
      "mploy": 1387,
      "▁expe": 1388,
      "▁mary": 1389,
      "▁safety": 1390,
      "▁import": 1391,
      "▁disg": 1392,
      "▁scold": 1393,
      "▁bother": 1394,
      "▁office": 1395,
      "▁everyone": 1396,
      "▁food": 1397,
      "▁engaged": 1398,
      "▁beauty": 1399,
      "noon": 1400,
      "▁overwor": 1401,
      "▁against": 1402,
      "▁interesting": 1403,
      "▁water": 1404,
      "mber": 1405,
      "▁vac": 1406,
      "▁greedy": 1407,
      "▁related": 1408,
      "▁thirty": 1409,
      "▁fuss": 1410,
      "▁brothers": 1411,
      "ibility": 1412,
      "ptical": 1413,
      "▁things": 1414,
      "▁afternoon": 1415,
      "▁walking": 1416,
      "▁drink": 1417,
      "▁drinking": 1418,
      "▁creative": 1419,
      "▁phot": 1420,
      "▁stranger": 1421,
      "ailable": 1422,
      "▁words": 1423,
      "ness": 1424,
      "▁available": 1425,
      "▁lawyer": 1426,
      "▁skeptical": 1427,
      "▁yelled": 1428,
      "▁fortunate": 1429,
      "▁suddenly": 1430,
      "▁chosen": 1431,
      "▁university": 1432,
      "▁expecting": 1433,
      "▁important": 1434,
      "▁scolded": 1435,
      "▁overworked": 1436,
      "▁vacation": 1437,
      "aus": 1438,
      "che": 1439,
      "cing": 1440,
      "cious": 1441,
      "ey": 1442,
      "fore": 1443,
      "hy": 1444,
      "hionable": 1445,
      "ier": 1446,
      "nize": 1447,
      "so": 1448,
      "ts": 1449,
      "ture": 1450,
      "▁ign": 1451,
      "▁aust": 1452,
      "▁six": 1453,
      "▁rep": 1454,
      "inion": 1455,
      "▁want": 1456,
      "▁fired": 1457,
      "▁fore": 1458,
      "eding": 1459,
      "▁bri": 1460,
      "▁cru": 1461,
      "▁crit": 1462,
      "▁hol": 1463,
      "▁high": 1464,
      "ature": 1465,
      "▁lun": 1466,
      "▁paying": 1467,
      "▁parent": 1468,
      "ane": 1469,
      "ank": 1470,
      "anoid": 1471,
      "iter": 1472,
      "itter": 1473,
      "ston": 1474,
      "▁stared": 1475,
      "ral": 1476,
      "ics": 1477,
      "▁before": 1478,
      "▁allerg": 1479,
      "ental": 1480,
      "▁myself": 1481,
      "ssible": 1482,
      "alf": 1483,
      "als": 1484,
      "imes": 1485,
      "▁asleep": 1486,
      "▁without": 1487,
      "▁lose": 1488,
      "▁loaded": 1489,
      "amp": 1490,
      "utting": 1491,
      "endent": 1492,
      "▁kiss": 1493,
      "▁key": 1494,
      "▁friendly": 1495,
      "▁dev": 1496,
      "ase": 1497,
      "ions": 1498,
      "ateful": 1499,
      "▁teaching": 1500,
      "▁anyw": 1501,
      "▁smoke": 1502,
      "▁boston": 1503,
      "aster": 1504,
      "▁saw": 1505,
      "▁helping": 1506,
      "▁preaching": 1507,
      "▁teachers": 1508,
      "▁tallest": 1509,
      "▁diet": 1510,
      "▁surrounded": 1511,
      "▁feel": 1512,
      "▁singing": 1513,
      "thy": 1514,
      "▁mov": 1515,
      "ognize": 1516,
      "▁sec": 1517,
      "▁opinion": 1518,
      "▁buy": 1519,
      "▁paranoid": 1520,
      "▁sometimes": 1521,
      "▁mistakes": 1522,
      "▁musician": 1523,
      "▁missing": 1524,
      "▁addict": 1525,
      "▁snakes": 1526,
      "fficient": 1527,
      "▁fashionable": 1528,
      "▁charming": 1529,
      "▁walk": 1530,
      "▁heroin": 1531,
      "▁turning": 1532,
      "▁ord": 1533,
      "▁easy": 1534,
      "▁easily": 1535,
      "▁grateful": 1536,
      "athetic": 1537,
      "▁actually": 1538,
      "▁few": 1539,
      "▁practice": 1540,
      "▁morning": 1541,
      "▁capable": 1542,
      "▁letting": 1543,
      "▁becaus": 1544,
      "▁temper": 1545,
      "▁recognize": 1546,
      "▁choir": 1547,
      "▁fussy": 1548,
      "▁ignor": 1549,
      "▁austral": 1550,
      "▁cruel": 1551,
      "▁critic": 1552,
      "▁holid": 1553,
      "▁lunch": 1554,
      "▁parents": 1555,
      "▁allergic": 1556,
      "▁because": 1557,
      "een": 1558,
      "ecial": 1559,
      "fort": 1560,
      "gly": 1561,
      "gant": 1562,
      "ile": 1563,
      "iet": 1564,
      "ike": 1565,
      "iable": 1566,
      "ience": 1567,
      "ky": 1568,
      "lves": 1569,
      "mar": 1570,
      "ossible": 1571,
      "ple": 1572,
      "pular": 1573,
      "ron": 1574,
      "rist": 1575,
      "sh": 1576,
      "ud": 1577,
      "ue": 1578,
      "ug": 1579,
      "ull": 1580,
      "ured": 1581,
      "zing": 1582,
      "▁ap": 1583,
      "▁ass": 1584,
      "▁auth": 1585,
      "▁take": 1586,
      "▁tree": 1587,
      "▁mat": 1588,
      "▁mom": 1589,
      "▁mill": 1590,
      "▁minded": 1591,
      "▁sit": 1592,
      "▁sent": 1593,
      "▁says": 1594,
      "▁rest": 1595,
      "int": 1596,
      "erful": 1597,
      "▁gor": 1598,
      "▁give": 1599,
      "▁gard": 1600,
      "▁gru": 1601,
      "▁grave": 1602,
      "▁bi": 1603,
      "▁bath": 1604,
      "▁wealth": 1605,
      "ory": 1606,
      "▁cor": 1607,
      "▁cous": 1608,
      "▁had": 1609,
      "▁host": 1610,
      "▁half": 1611,
      "▁lan": 1612,
      "▁dra": 1613,
      "▁pat": 1614,
      "▁pic": 1615,
      "▁pun": 1616,
      "▁putting": 1617,
      "ance": 1618,
      "▁thie": 1619,
      "▁amaz": 1620,
      "▁ind": 1621,
      "▁start": 1622,
      "▁stalling": 1623,
      "▁sun": 1624,
      "▁ever": 1625,
      "▁employ": 1626,
      "▁ugly": 1627,
      "alist": 1628,
      "chic": 1629,
      "▁also": 1630,
      "▁jerk": 1631,
      "rogant": 1632,
      "▁loss": 1633,
      "eas": 1634,
      "eaking": 1635,
      "ambitious": 1636,
      "amental": 1637,
      "▁libr": 1638,
      "▁world": 1639,
      "▁keep": 1640,
      "▁shower": 1641,
      "▁should": 1642,
      "▁chair": 1643,
      "▁christ": 1644,
      "▁unha": 1645,
      "▁unambitious": 1646,
      "▁def": 1647,
      "▁dem": 1648,
      "▁neigh": 1649,
      "seless": 1650,
      "selves": 1651,
      "▁ruth": 1652,
      "▁boat": 1653,
      "▁cool": 1654,
      "▁cops": 1655,
      "▁exam": 1656,
      "▁special": 1657,
      "▁speaking": 1658,
      "▁divor": 1659,
      "▁place": 1660,
      "▁finicky": 1661,
      "▁impossible": 1662,
      "▁childish": 1663,
      "▁arrogant": 1664,
      "▁poet": 1665,
      "▁popular": 1666,
      "▁point": 1667,
      "▁travel": 1668,
      "▁blinded": 1669,
      "▁surv": 1670,
      "▁lovely": 1671,
      "▁quiet": 1672,
      "▁canad": 1673,
      "itely": 1674,
      "▁shoes": 1675,
      "▁attent": 1676,
      "ages": 1677,
      "▁sleeping": 1678,
      "apped": 1679,
      "pect": 1680,
      "ieve": 1681,
      "▁ski": 1682,
      "▁swimmer": 1683,
      "▁starved": 1684,
      "▁reliable": 1685,
      "▁park": 1686,
      "guages": 1687,
      "▁mistaken": 1688,
      "▁truth": 1689,
      "▁terrified": 1690,
      "▁writer": 1691,
      "▁talkative": 1692,
      "▁headed": 1693,
      "▁absent": 1694,
      "▁complaints": 1695,
      "▁washing": 1696,
      "▁breaking": 1697,
      "▁break": 1698,
      "▁chess": 1699,
      "▁cheerful": 1700,
      "▁evening": 1701,
      "▁painting": 1702,
      "▁insensitive": 1703,
      "▁player": 1704,
      "▁fighting": 1705,
      "▁cats": 1706,
      "▁hook": 1707,
      "▁hope": 1708,
      "going": 1709,
      "iven": 1710,
      "▁true": 1711,
      "▁expens": 1712,
      "▁extroverted": 1713,
      "▁prisoners": 1714,
      "▁police": 1715,
      "▁month": 1716,
      "▁course": 1717,
      "▁arguing": 1718,
      "▁following": 1719,
      "▁cleaning": 1720,
      "▁fascinating": 1721,
      "▁psychic": 1722,
      "▁excited": 1723,
      "▁entirely": 1724,
      "▁gamb": 1725,
      "▁forgiven": 1726,
      "▁believe": 1727,
      "▁suggest": 1728,
      "▁chinese": 1729,
      "▁foreig": 1730,
      "▁bright": 1731,
      "▁temperamental": 1732,
      "▁ignorant": 1733,
      "▁holiday": 1734,
      "fortable": 1735,
      "▁author": 1736,
      "▁million": 1737,
      "▁gorgeous": 1738,
      "▁garden": 1739,
      "▁wealthy": 1740,
      "▁languages": 1741,
      "▁library": 1742,
      "▁unhappy": 1743,
      "▁ruthless": 1744,
      "▁divorced": 1745,
      "aw": 1746,
      "act": 1747,
      "aire": 1748,
      "by": 1749,
      "ccer": 1750,
      "eat": 1751,
      "ect": 1752,
      "ged": 1753,
      "ges": 1754,
      "ior": 1755,
      "ius": 1756,
      "iol": 1757,
      "ler": 1758,
      "lac": 1759,
      "mit": 1760,
      "mail": 1761,
      "nalist": 1762,
      "ood": 1763,
      "oper": 1764,
      "side": 1765,
      "tal": 1766,
      "table": 1767,
      "uent": 1768,
      "uation": 1769,
      "wort": 1770,
      "ze": 1771,
      "zzy": 1772,
      "▁ed": 1773,
      "ret": 1774,
      "reme": 1775,
      "▁tre": 1776,
      "▁tid": 1777,
      "▁tight": 1778,
      "hes": 1779,
      "▁mis": 1780,
      "▁met": 1781,
      "▁might": 1782,
      "▁mathe": 1783,
      "▁master": 1784,
      "▁sim": 1785,
      "▁song": 1786,
      "▁saying": 1787,
      "▁sang": 1788,
      "▁wife": 1789,
      "erman": 1790,
      "▁nam": 1791,
      "▁name": 1792,
      "▁toky": 1793,
      "▁these": 1794,
      "▁fil": 1795,
      "▁fear": 1796,
      "▁gas": 1797,
      "▁german": 1798,
      "▁bor": 1799,
      "▁bank": 1800,
      "▁wet": 1801,
      "▁weir": 1802,
      "orter": 1803,
      "orable": 1804,
      "▁cri": 1805,
      "▁cut": 1806,
      "▁pr": 1807,
      "▁pathetic": 1808,
      "ition": 1809,
      "▁among": 1810,
      "▁inter": 1811,
      "▁inde": 1812,
      "vest": 1813,
      "veling": 1814,
      "icul": 1815,
      "icious": 1816,
      "▁another": 1817,
      "▁sund": 1818,
      "▁susp": 1819,
      "▁eight": 1820,
      "▁efficient": 1821,
      "idated": 1822,
      "outh": 1823,
      "odel": 1824,
      "imidated": 1825,
      "▁alike": 1826,
      "▁jour": 1827,
      "rol": 1828,
      "eable": 1829,
      "using": 1830,
      "ushing": 1831,
      "unte": 1832,
      "ctual": 1833,
      "ends": 1834,
      "ists": 1835,
      "▁sold": 1836,
      "▁soccer": 1837,
      "irt": 1838,
      "oted": 1839,
      "▁kill": 1840,
      "▁ship": 1841,
      "▁shape": 1842,
      "▁chan": 1843,
      "▁champ": 1844,
      "owers": 1845,
      "▁untal": 1846,
      "▁dec": 1847,
      "▁debt": 1848,
      "olunte": 1849,
      "▁const": 1850,
      "ilar": 1851,
      "▁study": 1852,
      "▁studies": 1853,
      "▁using": 1854,
      "▁ris": 1855,
      "▁ration": 1856,
      "▁coff": 1857,
      "▁cooper": 1858,
      "mpy": 1859,
      "▁exce": 1860,
      "igious": 1861,
      "▁save": 1862,
      "▁saving": 1863,
      "▁helpful": 1864,
      "▁pres": 1865,
      "▁youngest": 1866,
      "▁dizzy": 1867,
      "▁manager": 1868,
      "oshed": 1869,
      "▁progress": 1870,
      "▁disc": 1871,
      "▁aggress": 1872,
      "▁sweat": 1873,
      "▁train": 1874,
      "▁traitor": 1875,
      "▁traveling": 1876,
      "▁persu": 1877,
      "▁sched": 1878,
      "▁scape": 1879,
      "▁blind": 1880,
      "▁faith": 1881,
      "▁face": 1882,
      "▁fail": 1883,
      "▁fault": 1884,
      "▁awake": 1885,
      "▁adv": 1886,
      "▁adorable": 1887,
      "▁dance": 1888,
      "▁dancer": 1889,
      "▁dancing": 1890,
      "▁viol": 1891,
      "▁volunte": 1892,
      "▁sloshed": 1893,
      "▁left": 1894,
      "▁partner": 1895,
      "▁started": 1896,
      "▁religious": 1897,
      "▁hurry": 1898,
      "▁parked": 1899,
      "▁knitting": 1900,
      "▁guys": 1901,
      "▁someone": 1902,
      "▁kids": 1903,
      "▁could": 1904,
      "▁couple": 1905,
      "▁certainly": 1906,
      "▁total": 1907,
      "▁intimidated": 1908,
      "▁responsibility": 1909,
      "▁ideas": 1910,
      "▁genius": 1911,
      "▁raking": 1912,
      "▁charge": 1913,
      "▁veget": 1914,
      "▁even": 1915,
      "airs": 1916,
      "▁painter": 1917,
      "▁powerless": 1918,
      "▁insane": 1919,
      "▁control": 1920,
      "▁planted": 1921,
      "▁stopped": 1922,
      "▁trusting": 1923,
      "▁trustwort": 1924,
      "goat": 1925,
      "▁truly": 1926,
      "▁novelist": 1927,
      "▁grand": 1928,
      "▁extreme": 1929,
      "▁dreaming": 1930,
      "▁polite": 1931,
      "▁consid": 1932,
      "▁closer": 1933,
      "▁smiling": 1934,
      "▁smiled": 1935,
      "▁prepared": 1936,
      "▁blackmail": 1937,
      "▁handsome": 1938,
      "▁selling": 1939,
      "▁eyes": 1940,
      "▁difficulties": 1941,
      "▁touched": 1942,
      "▁feller": 1943,
      "▁undressing": 1944,
      "▁photog": 1945,
      "▁replac": 1946,
      "▁anywhere": 1947,
      "▁apolog": 1948,
      "▁moment": 1949,
      "▁situation": 1950,
      "▁grumpy": 1951,
      "▁picture": 1952,
      "▁punctual": 1953,
      "▁amazing": 1954,
      "▁christians": 1955,
      "▁neighbor": 1956,
      "▁skiing": 1957,
      "▁expensive": 1958,
      "▁gambler": 1959,
      "▁millionaire": 1960,
      "▁tidy": 1961,
      "▁mathemat": 1962,
      "▁names": 1963,
      "▁tokyo": 1964,
      "▁filthy": 1965,
      "▁weird": 1966,
      "▁sundays": 1967,
      "▁journalist": 1968,
      "▁champion": 1969,
      "▁untalented": 1970,
      "▁rational": 1971,
      "▁coffee": 1972,
      "▁cooperating": 1973,
      "▁aggressive": 1974,
      "▁scapegoat": 1975,
      "▁trustworthy": 1976,
      "▁extremely": 1977,
      "▁replaceable": 1978,
      "ax": 1979,
      "acting": 1980,
      "bj": 1981,
      "bel": 1982,
      "fl": 1983,
      "fair": 1984,
      "gible": 1985,
      "ien": 1986,
      "ial": 1987,
      "ju": 1988,
      "luck": 1989,
      "mo": 1990,
      "min": 1991,
      "ners": 1992,
      "rated": 1993,
      "sw": 1994,
      "ule": 1995,
      "umb": 1996,
      "vious": 1997,
      "reacting": 1998,
      "▁tour": 1999,
      "▁teet": 2000,
      "▁med": 2001,
      "▁may": 2002,
      "▁mind": 2003,
      "▁model": 2004,
      "ought": 2005,
      "ound": 2006,
      "▁sen": 2007,
      "▁set": 2008,
      "▁yest": 2009,
      "inary": 2010,
      "initely": 2011,
      "▁whe": 2012,
      "▁wan": 2013,
      "▁wit": 2014,
      "▁wind": 2015,
      "▁height": 2016,
      "▁heart": 2017,
      "erday": 2018,
      "▁nature": 2019,
      "▁fan": 2020,
      "▁fut": 2021,
      "▁feet": 2022,
      "▁opp": 2023,
      "▁grou": 2024,
      "▁ben": 2025,
      "▁bra": 2026,
      "▁ce": 2027,
      "▁cit": 2028,
      "▁cro": 2029,
      "▁card": 2030,
      "▁city": 2031,
      "▁custom": 2032,
      "lly": 2033,
      "lled": 2034,
      "llent": 2035,
      "enager": 2036,
      "▁how": 2037,
      "▁hum": 2038,
      "▁horri": 2039,
      "▁lad": 2040,
      "▁line": 2041,
      "▁dar": 2042,
      "▁dating": 2043,
      "ised": 2044,
      "ishing": 2045,
      "arian": 2046,
      "▁pi": 2047,
      "▁pea": 2048,
      "▁pru": 2049,
      "▁picky": 2050,
      "▁pull": 2051,
      "any": 2052,
      "▁thought": 2053,
      "ither": 2054,
      "stairs": 2055,
      "▁invest": 2056,
      "rict": 2057,
      "▁stun": 2058,
      "▁stab": 2059,
      "▁station": 2060,
      "▁strict": 2061,
      "▁forty": 2062,
      "raged": 2063,
      "ich": 2064,
      "▁beer": 2065,
      "▁answ": 2066,
      "▁subj": 2067,
      "▁ear": 2068,
      "▁useless": 2069,
      "▁once": 2070,
      "ald": 2071,
      "alian": 2072,
      "oduct": 2073,
      "▁member": 2074,
      "▁jitter": 2075,
      "▁low": 2076,
      "▁look": 2077,
      "eaf": 2078,
      "une": 2079,
      "under": 2080,
      "unistic": 2081,
      "usting": 2082,
      "ending": 2083,
      "▁light": 2084,
      "othes": 2085,
      "▁italian": 2086,
      "▁shot": 2087,
      "▁shaken": 2088,
      "▁shorter": 2089,
      "▁thank": 2090,
      "own": 2091,
      "▁unre": 2092,
      "▁unins": 2093,
      "▁unmar": 2094,
      "▁unluck": 2095,
      "▁outgoing": 2096,
      "ceited": 2097,
      "▁neat": 2098,
      "▁nearly": 2099,
      "▁conceited": 2100,
      "▁seemed": 2101,
      "atest": 2102,
      "▁teach": 2103,
      "▁herself": 2104,
      "▁anybody": 2105,
      "teous": 2106,
      "▁comfortable": 2107,
      "▁commit": 2108,
      "▁usually": 2109,
      "▁small": 2110,
      "▁smile": 2111,
      "aste": 2112,
      "astated": 2113,
      "▁exper": 2114,
      "igning": 2115,
      "▁white": 2116,
      "▁fresh": 2117,
      "▁pregn": 2118,
      "▁spo": 2119,
      "▁direct": 2120,
      "▁many": 2121,
      "▁closed": 2122,
      "▁clothes": 2123,
      "▁respect": 2124,
      "antly": 2125,
      "▁disloy": 2126,
      "▁agree": 2127,
      "ependent": 2128,
      "▁drug": 2129,
      "▁compet": 2130,
      "▁company": 2131,
      "ortunistic": 2132,
      "▁blue": 2133,
      "▁beach": 2134,
      "▁fact": 2135,
      "▁faced": 2136,
      "noxious": 2137,
      "▁overreacting": 2138,
      "▁adult": 2139,
      "▁quick": 2140,
      "▁watched": 2141,
      "▁stronger": 2142,
      "▁moving": 2143,
      "▁green": 2144,
      "▁greatest": 2145,
      "▁ruined": 2146,
      "izing": 2147,
      "izen": 2148,
      "▁slapped": 2149,
      "▁less": 2150,
      "▁please": 2151,
      "▁partners": 2152,
      "▁starving": 2153,
      "▁doctors": 2154,
      "▁terms": 2155,
      "▁cup": 2156,
      "▁paris": 2157,
      "▁learn": 2158,
      "diced": 2159,
      "phone": 2160,
      "▁dangerous": 2161,
      "▁tense": 2162,
      "▁incorri": 2163,
      "▁beginner": 2164,
      "▁roll": 2165,
      "▁obnoxious": 2166,
      "▁flirt": 2167,
      "▁flowers": 2168,
      "▁calling": 2169,
      "▁speaker": 2170,
      "▁embarrassing": 2171,
      "▁rain": 2172,
      "▁teenager": 2173,
      "▁books": 2174,
      "▁aston": 2175,
      "▁farmer": 2176,
      "▁order": 2177,
      "▁bossy": 2178,
      "▁problems": 2179,
      "▁typ": 2180,
      "▁stood": 2181,
      "▁strange": 2182,
      "▁perfectly": 2183,
      "▁expert": 2184,
      "▁cowards": 2185,
      "▁healthy": 2186,
      "▁practic": 2187,
      "ologist": 2188,
      "▁closet": 2189,
      "▁finding": 2190,
      "▁courteous": 2191,
      "▁uncle": 2192,
      "▁preparing": 2193,
      "▁professor": 2194,
      "▁argue": 2195,
      "▁fascinated": 2196,
      "▁eye": 2197,
      "▁fairly": 2198,
      "▁fixing": 2199,
      "▁grown": 2200,
      "▁growing": 2201,
      "▁double": 2202,
      "▁didn": 2203,
      "▁disgusted": 2204,
      "▁disgusting": 2205,
      "▁keys": 2206,
      "▁devastated": 2207,
      "▁dieting": 2208,
      "▁movie": 2209,
      "▁ordinary": 2210,
      "▁match": 2211,
      "▁biased": 2212,
      "▁correct": 2213,
      "▁patience": 2214,
      "▁thief": 2215,
      "▁independent": 2216,
      "▁keeping": 2217,
      "▁definitely": 2218,
      "▁demented": 2219,
      "▁canadian": 2220,
      "▁attention": 2221,
      "▁similar": 2222,
      "▁fearless": 2223,
      "▁crimin": 2224,
      "▁product": 2225,
      "▁suspicious": 2226,
      "▁eighteen": 2227,
      "▁risk": 2228,
      "▁excellent": 2229,
      "▁present": 2230,
      "▁sweater": 2231,
      "▁schedule": 2232,
      "▁faithful": 2233,
      "▁volunteering": 2234,
      "▁vegetarian": 2235,
      "▁blackmailed": 2236,
      "▁apologize": 2237,
      "▁mathematics": 2238,
      "ienced": 2239,
      "judiced": 2240,
      "▁teeth": 2241,
      "▁yesterday": 2242,
      "▁wanted": 2243,
      "▁window": 2244,
      "▁future": 2245,
      "▁opportunistic": 2246,
      "▁bench": 2247,
      "▁citizen": 2248,
      "▁horrible": 2249,
      "▁dark": 2250,
      "▁peace": 2251,
      "▁prude": 2252,
      "▁pulling": 2253,
      "▁stunned": 2254,
      "▁stabbed": 2255,
      "▁subject": 2256,
      "▁jittery": 2257,
      "▁uninsured": 2258,
      "▁unmarried": 2259,
      "▁unlucky": 2260,
      "▁experienced": 2261,
      "▁pregnant": 2262,
      "▁disloyal": 2263,
      "▁agreement": 2264,
      "▁incorrigible": 2265,
      "▁productive": 2266,
      "av": 2267,
      "aly": 2268,
      "aff": 2269,
      "ball": 2270,
      "bul": 2271,
      "bum": 2272,
      "cy": 2273,
      "cle": 2274,
      "com": 2275,
      "cking": 2276,
      "cient": 2277,
      "cert": 2278,
      "cence": 2279,
      "father": 2280,
      "got": 2281,
      "gers": 2282,
      "ket": 2283,
      "lim": 2284,
      "na": 2285,
      "och": 2286,
      "oze": 2287,
      "olly": 2288,
      "pher": 2289,
      "pos": 2290,
      "rating": 2291,
      "sat": 2292,
      "sive": 2293,
      "tain": 2294,
      "tier": 2295,
      "ven": 2296,
      "way": 2297,
      "wear": 2298,
      "wife": 2299,
      "wich": 2300,
      "xible": 2301,
      "ys": 2302,
      "yot": 2303,
      "ycle": 2304,
      "zil": 2305,
      "▁rough": 2306,
      "▁acce": 2307,
      "heart": 2308,
      "▁min": 2309,
      "▁men": 2310,
      "▁mot": 2311,
      "▁most": 2312,
      "▁mag": 2313,
      "▁mond": 2314,
      "▁math": 2315,
      "▁maid": 2316,
      "▁sy": 2317,
      "▁sin": 2318,
      "▁sal": 2319,
      "▁sand": 2320,
      "▁sons": 2321,
      "▁sens": 2322,
      "▁south": 2323,
      "▁reg": 2324,
      "▁rese": 2325,
      "▁yor": 2326,
      "▁wis": 2327,
      "▁wall": 2328,
      "▁would": 2329,
      "▁heat": 2330,
      "▁heel": 2331,
      "erature": 2332,
      "▁nur": 2333,
      "▁noon": 2334,
      "▁fr": 2335,
      "▁fle": 2336,
      "▁fig": 2337,
      "▁fasting": 2338,
      "eds": 2339,
      "▁gon": 2340,
      "▁gra": 2341,
      "▁grounded": 2342,
      "▁br": 2343,
      "▁bat": 2344,
      "▁ble": 2345,
      "▁bic": 2346,
      "▁bir": 2347,
      "▁bas": 2348,
      "▁bru": 2349,
      "▁bald": 2350,
      "▁west": 2351,
      "orough": 2352,
      "orbed": 2353,
      "▁cell": 2354,
      "enic": 2355,
      "▁har": 2356,
      "▁hit": 2357,
      "▁hom": 2358,
      "▁hist": 2359,
      "▁hired": 2360,
      "atte": 2361,
      "▁det": 2362,
      "▁dig": 2363,
      "▁deep": 2364,
      "▁dumb": 2365,
      "▁deaf": 2366,
      "ism": 2367,
      "ising": 2368,
      "ison": 2369,
      "ision": 2370,
      "isions": 2371,
      "arate": 2372,
      "▁pot": 2373,
      "▁pos": 2374,
      "▁thri": 2375,
      "▁thorough": 2376,
      "itating": 2377,
      "itled": 2378,
      "itche": 2379,
      "▁amusing": 2380,
      "▁ammo": 2381,
      "stood": 2382,
      "▁infl": 2383,
      "ric": 2384,
      "rigu": 2385,
      "lebr": 2386,
      "▁stressed": 2387,
      "▁story": 2388,
      "etic": 2389,
      "rapher": 2390,
      "▁bee": 2391,
      "▁anim": 2392,
      "▁sum": 2393,
      "▁sued": 2394,
      "▁super": 2395,
      "▁eg": 2396,
      "▁el": 2397,
      "▁ele": 2398,
      "▁east": 2399,
      "▁either": 2400,
      "idd": 2401,
      "▁ones": 2402,
      "ssibility": 2403,
      "▁meant": 2404,
      "▁happ": 2405,
      "▁album": 2406,
      "▁ask": 2407,
      "▁asian": 2408,
      "▁jaz": 2409,
      "▁jolly": 2410,
      "room": 2411,
      "eagu": 2412,
      "uses": 2413,
      "usional": 2414,
      "oneer": 2415,
      "ulsive": 2416,
      "ction": 2417,
      "▁soci": 2418,
      "▁social": 2419,
      "▁lie": 2420,
      "▁worst": 2421,
      "▁abo": 2422,
      "▁door": 2423,
      "▁kore": 2424,
      "▁kyot": 2425,
      "▁karate": 2426,
      "▁kitche": 2427,
      "▁stuff": 2428,
      "▁chick": 2429,
      "▁nowhere": 2430,
      "▁unp": 2431,
      "▁outside": 2432,
      "cess": 2433,
      "cept": 2434,
      "▁negot": 2435,
      "▁energ": 2436,
      "▁cond": 2437,
      "▁concent": 2438,
      "▁concert": 2439,
      "▁anyone": 2440,
      "iling": 2441,
      "▁smoking": 2442,
      "▁booze": 2443,
      "▁sales": 2444,
      "ours": 2445,
      "▁spy": 2446,
      "▁spent": 2447,
      "▁spends": 2448,
      "▁manag": 2449,
      "▁plaste": 2450,
      "▁resigning": 2451,
      "aker": 2452,
      "epy": 2453,
      "▁arrest": 2454,
      "▁poop": 2455,
      "▁poison": 2456,
      "▁possibility": 2457,
      "▁trapped": 2458,
      "▁scient": 2459,
      "▁scaring": 2460,
      "▁news": 2461,
      "▁newcom": 2462,
      "▁offic": 2463,
      "▁blast": 2464,
      "▁bloc": 2465,
      "▁loves": 2466,
      "ests": 2467,
      "▁clearly": 2468,
      "▁guests": 2469,
      "▁prettier": 2470,
      "rupt": 2471,
      "▁ourselves": 2472,
      "▁quitter": 2473,
      "▁cann": 2474,
      "▁underwear": 2475,
      "▁freezing": 2476,
      "▁literature": 2477,
      "▁shock": 2478,
      "▁shook": 2479,
      "▁twins": 2480,
      "▁bigot": 2481,
      "▁attack": 2482,
      "agin": 2483,
      "agious": 2484,
      "agging": 2485,
      "▁watch": 2486,
      "▁bitter": 2487,
      "▁percept": 2488,
      "ized": 2489,
      "▁leg": 2490,
      "▁legs": 2491,
      "▁relax": 2492,
      "▁women": 2493,
      "▁opt": 2494,
      "▁hurting": 2495,
      "▁party": 2496,
      "▁learned": 2497,
      "▁meeting": 2498,
      "asses": 2499,
      "▁driver": 2500,
      "▁attracted": 2501,
      "▁incl": 2502,
      "▁introverted": 2503,
      "▁intrigu": 2504,
      "▁delusional": 2505,
      "▁obvious": 2506,
      "▁owners": 2507,
      "ache": 2508,
      "▁flab": 2509,
      "▁fluent": 2510,
      "▁flatte": 2511,
      "▁runner": 2512,
      "▁absorbed": 2513,
      "▁fooling": 2514,
      "▁rac": 2515,
      "▁rare": 2516,
      "▁dependent": 2517,
      "▁tele": 2518,
      "▁evil": 2519,
      "▁classmat": 2520,
      "▁sweetheart": 2521,
      "▁successful": 2522,
      "▁turn": 2523,
      "▁turned": 2524,
      "▁america": 2525,
      "▁inside": 2526,
      "▁innocence": 2527,
      "▁content": 2528,
      "▁contented": 2529,
      "▁contagious": 2530,
      "▁colleagu": 2531,
      "▁accident": 2532,
      "▁wondering": 2533,
      "▁appro": 2534,
      "▁apples": 2535,
      "▁creepy": 2536,
      "▁phone": 2537,
      "▁phys": 2538,
      "▁forgetting": 2539,
      "▁okay": 2540,
      "▁hotel": 2541,
      "▁incredible": 2542,
      "▁housewife": 2543,
      "ivated": 2544,
      "▁entitled": 2545,
      "▁illness": 2546,
      "▁others": 2547,
      "▁prisoner": 2548,
      "▁actress": 2549,
      "▁feeding": 2550,
      "▁conscient": 2551,
      "▁morons": 2552,
      "▁captain": 2553,
      "▁profession": 2554,
      "▁professional": 2555,
      "▁psyched": 2556,
      "▁excuses": 2557,
      "▁imagin": 2558,
      "▁doubt": 2559,
      "▁promoted": 2560,
      "nesses": 2561,
      "▁highly": 2562,
      "▁kissed": 2563,
      "▁movies": 2564,
      "▁secret": 2565,
      "▁orders": 2566,
      "▁australian": 2567,
      "▁criticism": 2568,
      "▁assist": 2569,
      "▁cousin": 2570,
      "▁cousins": 2571,
      "▁sunday": 2572,
      "▁employed": 2573,
      "▁hopeless": 2574,
      "▁foreign": 2575,
      "▁foreigner": 2576,
      "▁edges": 2577,
      "▁misunder": 2578,
      "▁born": 2579,
      "▁cuter": 2580,
      "▁indeed": 2581,
      "▁changing": 2582,
      "▁decisions": 2583,
      "▁constantly": 2584,
      "▁discou": 2585,
      "▁persuaded": 2586,
      "▁violin": 2587,
      "▁grandfather": 2588,
      "▁considering": 2589,
      "▁photogenic": 2590,
      "belie": 2591,
      "▁senior": 2592,
      "▁witnesses": 2593,
      "▁heights": 2594,
      "▁group": 2595,
      "▁brazil": 2596,
      "▁celebr": 2597,
      "▁customer": 2598,
      "▁humble": 2599,
      "▁lady": 2600,
      "▁pioneer": 2601,
      "▁investig": 2602,
      "▁neatly": 2603,
      "▁respected": 2604,
      "▁facts": 2605,
      "▁astonished": 2606,
      "▁practically": 2607,
      "▁criminals": 2608,
      "satisfied": 2609,
      "▁motivated": 2610,
      "▁mondays": 2611,
      "▁sandwich": 2612,
      "▁york": 2613,
      "▁heels": 2614,
      "▁nurse": 2615,
      "▁flexible": 2616,
      "▁figure": 2617,
      "▁gonna": 2618,
      "▁bleeding": 2619,
      "▁bicycle": 2620,
      "▁birth": 2621,
      "▁bruised": 2622,
      "▁cellphone": 2623,
      "▁homes": 2624,
      "▁digging": 2625,
      "▁thrilled": 2626,
      "▁animals": 2627,
      "▁jazz": 2628,
      "▁kyoto": 2629,
      "▁kitchen": 2630,
      "▁stuffed": 2631,
      "▁chicken": 2632,
      "▁negoti": 2633,
      "▁energy": 2634,
      "▁concentrating": 2635,
      "▁managing": 2636,
      "▁plastered": 2637,
      "▁pooped": 2638,
      "▁scientist": 2639,
      "▁blocking": 2640,
      "▁perceptive": 2641,
      "▁relaxed": 2642,
      "▁intrigued": 2643,
      "▁obviously": 2644,
      "▁flattered": 2645,
      "▁classmates": 2646,
      "▁conscientious": 2647,
      "▁misunderstood": 2648,
      "ai": 2649,
      "aj": 2650,
      "ale": 2651,
      "aust": 2652,
      "ber": 2653,
      "bly": 2654,
      "bted": 2655,
      "berg": 2656,
      "bia": 2657,
      "bled": 2658,
      "co": 2659,
      "con": 2660,
      "card": 2661,
      "cure": 2662,
      "cise": 2663,
      "days": 2664,
      "dget": 2665,
      "drated": 2666,
      "eor": 2667,
      "eying": 2668,
      "eked": 2669,
      "employ": 2670,
      "fa": 2671,
      "fle": 2672,
      "fast": 2673,
      "fering": 2674,
      "fident": 2675,
      "friend": 2676,
      "full": 2677,
      "gar": 2678,
      "gan": 2679,
      "gging": 2680,
      "gia": 2681,
      "hod": 2682,
      "hol": 2683,
      "host": 2684,
      "if": 2685,
      "io": 2686,
      "ially": 2687,
      "ived": 2688,
      "ipped": 2689,
      "ift": 2690,
      "iologist": 2691,
      "land": 2692,
      "lated": 2693,
      "lance": 2694,
      "mon": 2695,
      "mate": 2696,
      "mined": 2697,
      "mother": 2698,
      "mune": 2699,
      "nc": 2700,
      "ns": 2701,
      "nish": 2702,
      "nown": 2703,
      "oot": 2704,
      "ock": 2705,
      "oice": 2706,
      "pit": 2707,
      "port": 2708,
      "poke": 2709,
      "paw": 2710,
      "rre": 2711,
      "rat": 2712,
      "rture": 2713,
      "ser": 2714,
      "spect": 2715,
      "tee": 2716,
      "tie": 2717,
      "tane": 2718,
      "tale": 2719,
      "ugh": 2720,
      "uss": 2721,
      "uable": 2722,
      "uman": 2723,
      "uming": 2724,
      "uding": 2725,
      "umber": 2726,
      "vably": 2727,
      "vision": 2728,
      "wing": 2729,
      "wel": 2730,
      "writ": 2731,
      "ween": 2732,
      "yal": 2733,
      "yond": 2734,
      "▁end": 2735,
      "▁irre": 2736,
      "reed": 2737,
      "reamed": 2738,
      "rejudiced": 2739,
      "▁ahe": 2740,
      "▁aver": 2741,
      "▁ara": 2742,
      "▁aid": 2743,
      "▁air": 2744,
      "▁apt": 2745,
      "▁aud": 2746,
      "▁tat": 2747,
      "▁tas": 2748,
      "▁tick": 2749,
      "▁mer": 2750,
      "▁mal": 2751,
      "▁mas": 2752,
      "▁mur": 2753,
      "▁mach": 2754,
      "▁mouth": 2755,
      "▁midd": 2756,
      "▁sle": 2757,
      "▁sil": 2758,
      "▁sep": 2759,
      "▁serv": 2760,
      "▁size": 2761,
      "▁sound": 2762,
      "▁red": 2763,
      "▁refor": 2764,
      "▁rent": 2765,
      "▁reme": 2766,
      "▁remar": 2767,
      "▁renown": 2768,
      "inate": 2769,
      "inte": 2770,
      "▁wra": 2771,
      "▁wide": 2772,
      "▁held": 2773,
      "▁heav": 2774,
      "erate": 2775,
      "ermined": 2776,
      "▁nat": 2777,
      "▁nar": 2778,
      "▁nap": 2779,
      "▁naught": 2780,
      "▁nagging": 2781,
      "▁number": 2782,
      "▁toward": 2783,
      "▁torture": 2784,
      "▁noble": 2785,
      "▁fly": 2786,
      "▁fall": 2787,
      "▁fate": 2788,
      "▁fie": 2789,
      "▁fran": 2790,
      "▁fire": 2791,
      "▁falling": 2792,
      "▁fron": 2793,
      "▁fishing": 2794,
      "▁oct": 2795,
      "▁obed": 2796,
      "▁odd": 2797,
      "edic": 2798,
      "▁gal": 2799,
      "▁gather": 2800,
      "▁geor": 2801,
      "▁ghost": 2802,
      "▁bar": 2803,
      "▁bet": 2804,
      "▁baking": 2805,
      "▁bless": 2806,
      "▁bread": 2807,
      "▁body": 2808,
      "▁bound": 2809,
      "▁baff": 2810,
      "▁baker": 2811,
      "▁went": 2812,
      "ors": 2813,
      "orting": 2814,
      "orse": 2815,
      "▁cas": 2816,
      "▁col": 2817,
      "▁cant": 2818,
      "▁crying": 2819,
      "▁case": 2820,
      "enseless": 2821,
      "▁hy": 2822,
      "▁han": 2823,
      "▁hate": 2824,
      "▁hos": 2825,
      "▁hated": 2826,
      "▁hitting": 2827,
      "▁hours": 2828,
      "▁human": 2829,
      "▁horse": 2830,
      "▁laying": 2831,
      "vering": 2832,
      "▁dj": 2833,
      "▁dent": 2834,
      "▁dro": 2835,
      "▁drow": 2836,
      "▁dread": 2837,
      "▁dedic": 2838,
      "isit": 2839,
      "onvinced": 2840,
      "ontane": 2841,
      "arch": 2842,
      "arated": 2843,
      "armed": 2844,
      "▁pu": 2845,
      "▁pen": 2846,
      "▁pra": 2847,
      "▁pill": 2848,
      "▁past": 2849,
      "▁pur": 2850,
      "▁pian": 2851,
      "▁pass": 2852,
      "▁pressing": 2853,
      "ans": 2854,
      "anish": 2855,
      "▁those": 2856,
      "itation": 2857,
      "ities": 2858,
      "▁goss": 2859,
      "▁golf": 2860,
      "ster": 2861,
      "stcard": 2862,
      "stinate": 2863,
      "▁inch": 2864,
      "▁inse": 2865,
      "▁infect": 2866,
      "rived": 2867,
      "riage": 2868,
      "rieked": 2869,
      "ade": 2870,
      "adow": 2871,
      "adio": 2872,
      "▁stor": 2873,
      "▁stay": 2874,
      "▁stir": 2875,
      "▁store": 2876,
      "▁stand": 2877,
      "▁stru": 2878,
      "▁stop": 2879,
      "omy": 2880,
      "omed": 2881,
      "oman": 2882,
      "omfortable": 2883,
      "rageous": 2884,
      "icist": 2885,
      "icag": 2886,
      "icapped": 2887,
      "▁bear": 2888,
      "▁beside": 2889,
      "▁beyond": 2890,
      "▁analy": 2891,
      "▁suit": 2892,
      "▁sufficient": 2893,
      "▁suspect": 2894,
      "▁eart": 2895,
      "▁equ": 2896,
      "ided": 2897,
      "▁allow": 2898,
      "ssage": 2899,
      "aling": 2900,
      "aluable": 2901,
      "lding": 2902,
      "▁message": 2903,
      "▁hair": 2904,
      "▁alarmed": 2905,
      "▁ju": 2906,
      "▁jam": 2907,
      "▁join": 2908,
      "road": 2909,
      "roph": 2910,
      "▁loose": 2911,
      "▁loyal": 2912,
      "ease": 2913,
      "ush": 2914,
      "usive": 2915,
      "amaged": 2916,
      "esitting": 2917,
      "uting": 2918,
      "uter": 2919,
      "utter": 2920,
      "ctric": 2921,
      "usty": 2922,
      "ustrated": 2923,
      "isting": 2924,
      "istoc": 2925,
      "▁sofa": 2926,
      "▁live": 2927,
      "▁lies": 2928,
      "▁liable": 2929,
      "▁lived": 2930,
      "oting": 2931,
      "otball": 2932,
      "▁worthy": 2933,
      "▁glasses": 2934,
      "▁ability": 2935,
      "▁abroad": 2936,
      "▁doomed": 2937,
      "▁kep": 2938,
      "cks": 2939,
      "▁river": 2940,
      "▁riding": 2941,
      "▁rifle": 2942,
      "▁shiver": 2943,
      "▁shrieked": 2944,
      "▁shadow": 2945,
      "▁affair": 2946,
      "key": 2947,
      "▁chub": 2948,
      "▁chicag": 2949,
      "▁himself": 2950,
      "▁unfor": 2951,
      "▁unfair": 2952,
      "▁unbelie": 2953,
      "▁unsatisfied": 2954,
      "▁unemploy": 2955,
      "▁uninte": 2956,
      "▁outraged": 2957,
      "▁dece": 2958,
      "▁dehy": 2959,
      "tern": 2960,
      "cere": 2961,
      "▁neck": 2962,
      "ashed": 2963,
      "ionist": 2964,
      "olitely": 2965,
      "▁seeking": 2966,
      "severing": 2967,
      "▁hers": 2968,
      "ilities": 2969,
      "▁comed": 2970,
      "▁upstairs": 2971,
      "▁usual": 2972,
      "▁smell": 2973,
      "▁smok": 2974,
      "▁smoot": 2975,
      "▁smashed": 2976,
      "▁ring": 2977,
      "▁rat": 2978,
      "▁radio": 2979,
      "▁rusty": 2980,
      "▁coat": 2981,
      "▁coast": 2982,
      "asted": 2983,
      "mpathetic": 2984,
      "▁exact": 2985,
      "▁freak": 2986,
      "▁marry": 2987,
      "▁marrying": 2988,
      "▁market": 2989,
      "▁marriage": 2990,
      "▁sav": 2991,
      "▁helpless": 2992,
      "▁precious": 2993,
      "▁prejudiced": 2994,
      "▁precise": 2995,
      "urity": 2996,
      "▁spot": 2997,
      "▁sport": 2998,
      "▁spok": 2999,
      "▁spies": 3000,
      "▁spontane": 3001,
      "▁spanish": 3002,
      "artment": 3003,
      "▁died": 3004,
      "▁diab": 3005,
      "▁finishing": 3006,
      "▁finnish": 3007,
      "▁club": 3008,
      "▁clerk": 3009,
      "▁claust": 3010,
      "▁clock": 3011,
      "acker": 3012,
      "que": 3013,
      "antic": 3014,
      "▁impress": 3015,
      "▁impulsive": 3016,
      "▁impolitely": 3017,
      "▁disag": 3018,
      "▁disob": 3019,
      "▁dispos": 3020,
      "▁disease": 3021,
      "▁agreed": 3022,
      "aptable": 3023,
      "▁swiss": 3024,
      "▁swamp": 3025,
      "▁arrived": 3026,
      "▁aristoc": 3027,
      "▁wait": 3028,
      "▁pool": 3029,
      "▁postcard": 3030,
      "▁track": 3031,
      "▁traffic": 3032,
      "▁computer": 3033,
      "▁scare": 3034,
      "▁screamed": 3035,
      "ortive": 3036,
      "▁invitation": 3037,
      "▁newsp": 3038,
      "▁whole": 3039,
      "▁blushing": 3040,
      "▁fake": 3041,
      "▁favor": 3042,
      "▁facing": 3043,
      "▁fabul": 3044,
      "▁awfull": 3045,
      "▁fox": 3046,
      "▁football": 3047,
      "rested": 3048,
      "▁liars": 3049,
      "▁engine": 3050,
      "▁england": 3051,
      "▁overcon": 3052,
      "▁pretending": 3053,
      "ruction": 3054,
      "▁adaptable": 3055,
      "▁quitting": 3056,
      "▁underage": 3057,
      "▁freelance": 3058,
      "▁hardwor": 3059,
      "▁shop": 3060,
      "tletale": 3061,
      "▁twin": 3062,
      "▁twisting": 3063,
      "▁sings": 3064,
      "▁biggest": 3065,
      "▁girls": 3066,
      "gettable": 3067,
      "racted": 3068,
      "▁attac": 3069,
      "ober": 3070,
      "obic": 3071,
      "▁watering": 3072,
      "ations": 3073,
      "ationsh": 3074,
      "onscious": 3075,
      "mbling": 3076,
      "▁troubled": 3077,
      "▁carrying": 3078,
      "▁laugh": 3079,
      "▁badly": 3080,
      "▁supportive": 3081,
      "ulture": 3082,
      "▁move": 3083,
      "▁moody": 3084,
      "▁skate": 3085,
      "▁skating": 3086,
      "▁voice": 3087,
      "▁visit": 3088,
      "▁valuable": 3089,
      "▁madly": 3090,
      "▁persevering": 3091,
      "▁jobs": 3092,
      "▁ruin": 3093,
      "▁russ": 3094,
      "▁rules": 3095,
      "▁slim": 3096,
      "▁slipped": 3097,
      "▁slacker": 3098,
      "▁lean": 3099,
      "▁parties": 3100,
      "▁particul": 3101,
      "▁relie": 3102,
      "▁relationsh": 3103,
      "▁opening": 3104,
      "▁build": 3105,
      "▁budget": 3106,
      "▁learner": 3107,
      "▁confron": 3108,
      "▁somew": 3109,
      "▁understands": 3110,
      "assing": 3111,
      "▁muslim": 3112,
      "▁count": 3113,
      "▁courageous": 3114,
      "▁careless": 3115,
      "reeing": 3116,
      "▁boys": 3117,
      "▁boyfriend": 3118,
      "▁trusted": 3119,
      "▁begging": 3120,
      "▁deluding": 3121,
      "▁terribly": 3122,
      "▁responsib": 3123,
      "▁rob": 3124,
      "▁rope": 3125,
      "▁missed": 3126,
      "▁obstinate": 3127,
      "▁write": 3128,
      "▁themselves": 3129,
      "▁callous": 3130,
      "▁talker": 3131,
      "▁north": 3132,
      "▁distracted": 3133,
      "▁snow": 3134,
      "▁served": 3135,
      "▁breast": 3136,
      "▁breath": 3137,
      "▁charact": 3138,
      "▁charges": 3139,
      "▁department": 3140,
      "▁realize": 3141,
      "▁handling": 3142,
      "▁handicapped": 3143,
      "▁classmate": 3144,
      "▁sweetest": 3145,
      "▁articul": 3146,
      "▁astron": 3147,
      "▁turkey": 3148,
      "▁organ": 3149,
      "▁housesitting": 3150,
      "▁desk": 3151,
      "▁plans": 3152,
      "▁planning": 3153,
      "▁players": 3154,
      "▁apple": 3155,
      "▁apparent": 3156,
      "▁weekdays": 3157,
      "▁cream": 3158,
      "▁stole": 3159,
      "▁stock": 3160,
      "▁strangers": 3161,
      "▁annoy": 3162,
      "▁suffoc": 3163,
      "▁cookie": 3164,
      "▁thinker": 3165,
      "▁perfectionist": 3166,
      "▁fully": 3167,
      "▁catching": 3168,
      "▁hottie": 3169,
      "chooled": 3170,
      "ivors": 3171,
      "▁reasons": 3172,
      "▁firing": 3173,
      "▁succeeded": 3174,
      "▁americans": 3175,
      "azine": 3176,
      "spassing": 3177,
      "▁wrecked": 3178,
      "▁dreams": 3179,
      "▁dreamer": 3180,
      "rovert": 3181,
      "aintance": 3182,
      "ology": 3183,
      "▁closing": 3184,
      "▁acquaintance": 3185,
      "▁slowly": 3186,
      "▁slowpoke": 3187,
      "▁warm": 3188,
      "▁warming": 3189,
      "▁downstairs": 3190,
      "▁unconvinced": 3191,
      "▁uncomfortable": 3192,
      "▁unconscious": 3193,
      "▁reasonable": 3194,
      "ocating": 3195,
      "▁sells": 3196,
      "▁tempting": 3197,
      "▁image": 3198,
      "▁immune": 3199
    },
    "merges": [
      "▁ .",
      "▁. \n",
      "▁ i",
      "r e",
      "▁ a",
      "▁ t",
      "h e",
      "▁ m",
      "o u",
      "▁ s",
      "▁ re",
      "▁ y",
      "▁y ou",
      "i n",
      "in g",
      "▁ w",
      "▁ he",
      "e r",
      "▁ n",
      "▁t o",
      "▁n o",
      "▁t he",
      "▁ f",
      "▁ o",
      "e d",
      "▁no t",
      "▁ g",
      "▁ b",
      "▁i s",
      "▁w e",
      "o r",
      "▁ c",
      "l l",
      "e n",
      "▁ h",
      "a t",
      "▁s he",
      "▁ l",
      "v er",
      "▁ d",
      "i s",
      "o n",
      "a r",
      "▁a re",
      "▁ p",
      "a n",
      "ver y",
      "▁t h",
      "▁o f",
      "i t",
      "▁g o",
      "▁ very",
      "▁a m",
      "s t",
      "▁i n",
      "▁the y",
      "r i",
      "l e",
      "a d",
      "▁s t",
      "o m",
      "e t",
      "v e",
      "▁f or",
      "r a",
      "i c",
      "▁b e",
      "▁go ing",
      "▁a n",
      "g h",
      "▁s u",
      "▁ e",
      "▁ u",
      "i d",
      "▁a ll",
      "en t",
      "k ing",
      "a y",
      "▁o n",
      "l y",
      "r y",
      "▁m y",
      "s s",
      "a l",
      "a ll",
      "▁a t",
      "p p",
      "gh t",
      "ou t",
      "o d",
      "l d",
      "i m",
      "▁m e",
      "▁h a",
      "c h",
      "▁a l",
      "re d",
      "it h",
      "▁a s",
      "▁ j",
      "▁w ith",
      "r o",
      "▁l o",
      "he r",
      "▁he re",
      "e a",
      "▁th at",
      "ou s",
      "b le",
      "▁go od",
      "u s",
      "a m",
      "▁you r",
      "on e",
      "u n",
      "e s",
      "u l",
      "u t",
      "c t",
      "▁s or",
      "u st",
      "en d",
      "is t",
      "▁s o",
      "i ll",
      "▁sor ry",
      "▁l i",
      "e e",
      "all y",
      "i r",
      "o t",
      "▁w or",
      "▁to o",
      "▁th is",
      "▁g l",
      "om e",
      "▁a b",
      "pp y",
      "▁gl ad",
      "▁d o",
      "t ing",
      "▁ k",
      "▁f ri",
      "c k",
      "▁ha ppy",
      "▁i t",
      "▁ ri",
      "i red",
      "r ou",
      "▁s h",
      "▁th an",
      "▁st u",
      "▁a f",
      "k e",
      "▁o ld",
      "▁to m",
      "▁c h",
      "▁fri end",
      "▁no w",
      "i ve",
      "o w",
      "a in",
      "v ing",
      "f ul",
      "▁h im",
      "▁ab out",
      "▁u n",
      "▁ out",
      "▁d e",
      "ay s",
      "? \n",
      "▁ ?\n",
      "t er",
      "▁are n",
      "c e",
      "▁n e",
      "ra id",
      "▁af raid",
      "▁t ired",
      "in d",
      "▁su re",
      "a s",
      "i on",
      "o l",
      "▁ri ght",
      "▁re ally",
      "o king",
      "▁b us",
      "▁ en",
      "ar d",
      "▁st ill",
      "▁on e",
      "▁c on",
      "▁bus y",
      "▁s ee",
      "▁re ad",
      "at e",
      "▁j ust",
      "s e",
      "▁t ea",
      "▁he r",
      "▁an y",
      "i l",
      "▁h is",
      "o re",
      "t e",
      "ri ed",
      "on g",
      "w ays",
      "▁al ways",
      "▁c om",
      "h ing",
      "▁u p",
      "f e",
      "re ss",
      "i ght",
      "▁g et",
      "▁stu d",
      "y ing",
      "▁u s",
      "▁lo oking",
      "▁s m",
      "er s",
      "g e",
      "▁ r",
      "▁b o",
      "▁c o",
      "a st",
      "m p",
      "t ed",
      "is h",
      "▁e x",
      "i g",
      "i ous",
      "n ing",
      "▁w h",
      "▁f re",
      "▁b y",
      "▁read y",
      "t y",
      "▁m ar",
      "▁h ome",
      "c her",
      "g ry",
      "l p",
      "r om",
      "▁s a",
      "▁he lp",
      "▁p re",
      "▁tea cher",
      "u r",
      "ou r",
      "▁s p",
      "ar t",
      "e ar",
      "▁t all",
      "▁you n",
      "▁d i",
      "! \n",
      "g er",
      "▁ !\n",
      "▁m an",
      "ic e",
      "am e",
      "▁be ing",
      "a king",
      "o s",
      "r ong",
      "▁t al",
      "▁f rom",
      "▁p l",
      "▁get ting",
      "a ble",
      "d er",
      "▁t im",
      "▁f in",
      "▁c l",
      "▁an d",
      "an d",
      "a ck",
      "▁re s",
      "ic k",
      "▁stud ent",
      "q u",
      "an t",
      "it ing",
      "i ld",
      "at ed",
      "▁p ro",
      "▁ha ve",
      "▁mar ried",
      "▁i mp",
      "▁d is",
      "▁al one",
      "▁k ind",
      "a k",
      "z y",
      "he d",
      "at ing",
      "▁ch ild",
      "ress ed",
      "▁a g",
      "at her",
      "ay ing",
      "▁wor k",
      "▁do ing",
      "a p",
      "a re",
      "▁s w",
      "▁p rou",
      "▁in te",
      "▁prou d",
      "e p",
      "▁a r",
      "▁l ea",
      "e ll",
      "▁w a",
      "▁p o",
      "l f",
      "▁t ra",
      "▁d r",
      "▁p ers",
      "▁li ke",
      "▁com p",
      "ou gh",
      "▁s c",
      "or t",
      "▁in v",
      "▁ne w",
      "▁wh o",
      "▁youn g",
      "o k",
      "t hing",
      "▁b ot",
      "▁h un",
      "▁l ate",
      "▁of f",
      "▁e very",
      "▁wa iting",
      "ro w",
      "n y",
      "▁g ir",
      "▁b l",
      "▁be a",
      "▁su ch",
      "f f",
      "i ent",
      "r is",
      "▁b ack",
      "▁su r",
      "▁pers on",
      "l ing",
      "▁y et",
      "▁f a",
      "ar ly",
      "▁lo ve",
      "▁friend s",
      "▁hun gry",
      "d ay",
      "e st",
      "m ore",
      "▁a w",
      "▁f o",
      "▁any more",
      "i an",
      "v ed",
      "re st",
      "▁c le",
      "▁li ar",
      "▁en g",
      "▁bea ut",
      "l ish",
      "n o",
      "w n",
      "▁o ver",
      "▁g u",
      "▁c ra",
      "▁wor king",
      "▁pre t",
      "▁tim e",
      "▁ag ain",
      "r u",
      "▁a d",
      "▁s ick",
      "in e",
      "▁f am",
      "▁f un",
      "▁d one",
      "le ep",
      "et ter",
      "w ard",
      "▁ our",
      "▁ qu",
      "▁i f",
      "▁c an",
      "▁d an",
      "it e",
      "it ed",
      "ent ed",
      "▁un der",
      "▁fre e",
      "i ble",
      "▁t ry",
      "▁f ee",
      "▁h ard",
      "▁l it",
      "ch ing",
      "▁sh o",
      "a ke",
      "o st",
      "t le",
      "▁t w",
      "▁s ing",
      "▁b ig",
      "ar ing",
      "le ss",
      "▁for ward",
      "▁inte rest",
      "▁gir l",
      "a b",
      "g et",
      "m an",
      "t h",
      "t her",
      "re n",
      "▁s ame",
      "ra ct",
      "▁at t",
      "▁pret ty",
      "a g",
      "o b",
      "u ck",
      "▁w at",
      "▁w ill",
      "▁b ro",
      "▁st rong",
      "▁e arly",
      "▁on ly",
      "▁wor ried",
      "▁de ad",
      "▁us ed",
      "▁lit tle",
      "i ful",
      "▁to day",
      "or row",
      "at ion",
      "on s",
      "▁th in",
      "▁tom orrow",
      "▁en ough",
      "▁beaut iful",
      "a red",
      "m b",
      "n d",
      "▁t rou",
      "▁m ore",
      "▁s leep",
      "▁y ear",
      "▁c ar",
      "▁l a",
      "a pp",
      "d e",
      "k ed",
      "p ris",
      "▁b it",
      "▁b ad",
      "▁we ll",
      "▁lea ving",
      "▁sur pris",
      "▁year s",
      "p e",
      "er t",
      "▁b ut",
      "ra ve",
      "ut e",
      "▁com ing",
      "▁tall er",
      "os ed",
      "▁fee ling",
      "▁trou ble",
      "▁surpris ed",
      "c ce",
      "▁m aking",
      "in ed",
      "▁the re",
      "▁f ather",
      "▁l uck",
      "▁su pp",
      "un k",
      "ul t",
      "▁eng lish",
      "c ed",
      "i e",
      "▁m o",
      "▁s k",
      "▁w rong",
      "▁is n",
      "is s",
      "is hed",
      "it y",
      "▁be h",
      "es e",
      "ct or",
      "▁dr unk",
      "▁bot h",
      "▁cra zy",
      "▁fun ny",
      "▁try ing",
      "f i",
      "n er",
      "n ch",
      "o in",
      "u re",
      "▁ v",
      "▁m u",
      "▁m ad",
      "▁g re",
      "▁b etter",
      "▁p er",
      "▁an gry",
      "▁j ob",
      "ea k",
      "▁r u",
      "▁fre nch",
      "▁sw im",
      "▁cle ver",
      "▁interest ed",
      "fi ed",
      "i z",
      "▁a c",
      "▁s l",
      "▁l e",
      "is e",
      "▁p le",
      "▁p art",
      "▁st ar",
      "▁su cce",
      "▁ha ving",
      "▁do ctor",
      "as ed",
      "▁any thing",
      "▁sa fe",
      "▁tal ented",
      "▁inv ited",
      "▁supp osed",
      "h a",
      "m ost",
      "o g",
      "s et",
      "▁t er",
      "▁s e",
      "▁s om",
      "▁re l",
      "▁w om",
      "er v",
      "▁o p",
      "▁b u",
      "▁c u",
      "▁h ur",
      "ar ter",
      "▁p ar",
      "▁be st",
      "▁al most",
      "▁j ap",
      "▁up set",
      "▁sm arter",
      "▁dis app",
      "▁beh ind",
      "▁mu ch",
      "▁som et",
      "▁jap an",
      "i es",
      "n ed",
      "p er",
      "▁w ay",
      "▁n ice",
      "▁b rave",
      "en s",
      "▁l ear",
      "on d",
      "ust ed",
      "ist ic",
      "▁k n",
      "▁con f",
      "▁pl aying",
      "▁gu y",
      "oin ted",
      "▁disapp ointed",
      "b ed",
      "c er",
      "d ic",
      "e l",
      "p h",
      "p id",
      "▁t aking",
      "▁s ome",
      "at h",
      "▁th ir",
      "it ting",
      "st and",
      "▁me et",
      "one y",
      "▁k id",
      "rou nd",
      "▁stu pid",
      "▁old est",
      "▁sm art",
      "▁fin ished",
      "▁imp ressed",
      "ak es",
      "▁dan ger",
      "▁under stand",
      "a ss",
      "e et",
      "i ly",
      "▁m us",
      "▁m oney",
      "▁s at",
      "er ing",
      "▁c ou",
      "▁c are",
      "▁c ert",
      "en ing",
      "▁d ri",
      "id e",
      "▁read ing",
      "se lf",
      "▁res p",
      "▁student s",
      "▁att ract",
      "▁ple ased",
      "▁wom an",
      "▁cert ain",
      "g u",
      "m s",
      "re e",
      "re ad",
      "▁a ge",
      "▁m ist",
      "▁the ir",
      "▁f u",
      "ri ous",
      "ow ed",
      "▁bo y",
      "▁tra ined",
      "▁qu ite",
      "▁bro ther",
      "▁sleep y",
      "▁japan ese",
      "o se",
      "▁t r",
      "▁t en",
      "▁t ell",
      "in ning",
      "▁to t",
      "▁c ome",
      "is fied",
      "▁in c",
      "▁in t",
      "▁be g",
      "ct ing",
      "ow er",
      "▁de l",
      "▁see ing",
      "ast ing",
      "▁ter ri",
      "▁cu rious",
      "▁mus ic",
      "▁resp ons",
      "i b",
      "m ing",
      "p t",
      "w or",
      "x t",
      "▁ ro",
      "▁m iss",
      "▁w ise",
      "▁o b",
      "▁o wn",
      "▁we aring",
      "am ed",
      "ot her",
      "▁ri ch",
      "▁sh ort",
      "▁ne xt",
      "▁co ld",
      "▁tim id",
      "▁every thing",
      "▁ad dic",
      "▁la zy",
      "▁luck y",
      "▁kn ow",
      "▁attract ive",
      "a c",
      "a ger",
      "i ving",
      "▁w r",
      "▁the m",
      "▁f l",
      "▁c all",
      "at ient",
      "▁l ong",
      "▁l ying",
      "ra ss",
      "▁e ating",
      "▁as h",
      "▁r un",
      "▁ex ha",
      "▁wh at",
      "▁sp eak",
      "▁tal k",
      "▁fin e",
      "▁po or",
      "▁somet hing",
      "▁exha usted",
      "l ain",
      "m ed",
      "o ke",
      "x ious",
      "▁m ine",
      "▁he ad",
      "▁no r",
      "▁d ist",
      "ar rass",
      "it ive",
      "▁e mb",
      "od y",
      "▁al read",
      "▁li ving",
      "▁ab s",
      "▁old er",
      "ion al",
      "▁stud ying",
      "▁lea ve",
      "▁sc ared",
      "▁fo ol",
      "ab ly",
      "ren t",
      "▁wat ching",
      "▁thin king",
      "▁hur t",
      "▁sat isfied",
      "▁care ful",
      "▁ash amed",
      "▁emb arrass",
      "▁alread y",
      "f fe",
      "r an",
      "▁i d",
      "▁a ble",
      "▁s n",
      "▁s er",
      "▁w asting",
      "▁f ast",
      "▁g en",
      "▁d ressed",
      "▁th ing",
      "le te",
      "ve l",
      "▁j e",
      "▁lo st",
      "ut h",
      "▁so ph",
      "ol ved",
      "ight ed",
      "▁di ffe",
      "▁cl ose",
      "▁child ren",
      "▁comp lain",
      "▁comp lete",
      "▁inv olved",
      "ff ic",
      "▁sk in",
      "istic ated",
      "▁soph isticated",
      "▁diffe rent",
      "a ge",
      "o p",
      "▁ ra",
      "▁w as",
      "▁f at",
      "▁f as",
      "▁f ond",
      "▁b re",
      "en ed",
      "▁l ist",
      "ic al",
      "▁be en",
      "al th",
      "pp ing",
      "ght ened",
      "▁li ked",
      "▁fri ghtened",
      "▁af ter",
      "▁ch ar",
      "▁de p",
      "▁tal king",
      "▁tw o",
      "▁ru de",
      "ens itive",
      "▁lear ning",
      "▁tot ally",
      "▁del ighted",
      "▁skin ny",
      "b it",
      "b ably",
      "c ent",
      "c ome",
      "d ing",
      "f or",
      "g ing",
      "i re",
      "m al",
      "n t",
      "n ight",
      "▁ ve",
      "▁t e",
      "▁re al",
      "▁w on",
      "▁w al",
      "▁he ar",
      "▁he ro",
      "▁to night",
      "▁g iving",
      "▁c he",
      "ll ig",
      "▁h and",
      "at ive",
      "▁d ying",
      "ar y",
      "st y",
      "▁e v",
      "al ous",
      "us ed",
      "ust om",
      "fe ct",
      "▁bo ok",
      "ur bed",
      "▁youn ger",
      "▁cl ass",
      "▁pro bably",
      "▁sw eet",
      "▁inte llig",
      "▁ar t",
      "▁dr in",
      "▁aw are",
      "▁fam ily",
      "▁succe ss",
      "▁se lf",
      "▁long er",
      "▁run ning",
      "▁nor mal",
      "▁dist urbed",
      "▁ser ious",
      "▁je alous",
      "▁complete ly",
      "▁list ening",
      "▁intellig ent",
      "a u",
      "a ir",
      "b ody",
      "i x",
      "l come",
      "m y",
      "v in",
      "▁a st",
      "▁a round",
      "▁t ur",
      "▁m ake",
      "er ic",
      "▁n ut",
      "▁f ar",
      "▁o r",
      "▁we lcome",
      "▁h ous",
      "▁d on",
      "▁d es",
      "▁p ain",
      "▁p ower",
      "▁am eric",
      "▁in s",
      "▁in no",
      "▁st aying",
      "▁an xious",
      "▁e m",
      "▁e as",
      "id ent",
      "▁lo t",
      "rou gh",
      "▁ne ver",
      "▁con t",
      "▁con cer",
      "▁bo ss",
      "▁co ll",
      "▁di e",
      "▁pl an",
      "▁pl ay",
      "▁pro ble",
      "iz e",
      "▁ac c",
      "▁op en",
      "▁conf used",
      "▁thir sty",
      "▁respons ible",
      "▁embarrass ed",
      "▁won der",
      "au ght",
      "vin ced",
      "▁nut s",
      "▁concer ned",
      "b or",
      "c i",
      "e k",
      "e my",
      "g s",
      "i gh",
      "o y",
      "▁a pp",
      "▁t v",
      "▁t y",
      "▁m other",
      "in ner",
      "er ous",
      "▁n erv",
      "▁g ent",
      "▁we ek",
      "▁c re",
      "▁d ut",
      "▁p h",
      "▁st o",
      "▁st ran",
      "▁for get",
      "▁an no",
      "▁su ff",
      "▁al ive",
      "▁en emy",
      "▁see ms",
      "▁bo red",
      "▁co ok",
      "▁sa id",
      "▁sho pping",
      "▁tw ice",
      "get her",
      "▁thin k",
      "▁mo od",
      "▁per fect",
      "▁fu ll",
      "▁beg inning",
      "▁terri ble",
      "▁addic ted",
      "bit ious",
      "▁em ot",
      "▁nerv ous",
      "▁gent le",
      "▁dut y",
      "a id",
      "a ive",
      "a il",
      "f ty",
      "i ot",
      "m er",
      "n is",
      "o ol",
      "▁ ll",
      "▁s on",
      "▁s ad",
      "▁s ide",
      "er g",
      "▁n ight",
      "▁n aive",
      "▁to gether",
      "▁f ight",
      "▁o k",
      "▁c at",
      "▁c ute",
      "▁h o",
      "▁h one",
      "▁h ot",
      "▁l one",
      "ch ool",
      "▁li fe",
      "▁de ath",
      "▁ne ed",
      "▁con vinced",
      "ge st",
      "▁sing le",
      "▁gre at",
      "▁star ting",
      "▁understand ing",
      "▁tr ust",
      "▁ten nis",
      "▁inc red",
      "▁id iot",
      "▁art ist",
      "▁hous e",
      "▁emot ional",
      "▁lone ly",
      "a ch",
      "c hed",
      "g o",
      "i p",
      "i v",
      "i ar",
      "l oy",
      "m ent",
      "s ing",
      "u ally",
      "▁ ent",
      "▁i ll",
      "▁t ough",
      "▁t ru",
      "▁s ist",
      "▁s itting",
      "▁re as",
      "▁no vel",
      "▁f ir",
      "▁o ther",
      "▁g r",
      "▁g one",
      "▁c ow",
      "en ce",
      "at he",
      "▁l etter",
      "▁d ay",
      "▁d aught",
      "▁p ris",
      "▁th rough",
      "ve s",
      "▁me an",
      "▁j oking",
      "▁wor d",
      "ck ed",
      "▁sh y",
      "▁stu ck",
      "ind ed",
      "▁tea m",
      "il iar",
      "▁ex p",
      "▁ex t",
      "▁imp atient",
      "▁work er",
      "▁like ly",
      "▁fam ous",
      "▁fam iliar",
      "▁succe ed",
      "per ate",
      "▁gen erous",
      "▁complain ing",
      "▁des perate",
      "▁americ an",
      "▁inno cent",
      "▁coll e",
      "▁acc ustom",
      "▁wonder ful",
      "▁anno ying",
      "▁gentle man",
      "▁hone st",
      "▁cow ard",
      "▁pris on",
      "a z",
      "d d",
      "g n",
      "g ress",
      "i a",
      "i ver",
      "l ed",
      "n e",
      "n ting",
      "s p",
      "s y",
      "t en",
      "re am",
      "▁a ct",
      "he red",
      "▁s ensitive",
      "▁s chool",
      "▁re t",
      "▁w re",
      "▁he alth",
      "▁f e",
      "▁f ed",
      "▁l ast",
      "▁d ress",
      "▁d ream",
      "▁p ol",
      "▁p ract",
      "▁th ree",
      "▁of ten",
      "ri end",
      "▁st y",
      "▁e ager",
      "id ing",
      "▁all owed",
      "▁as king",
      "ro ver",
      "▁lo sing",
      "▁your s",
      "▁your self",
      "es ome",
      "▁sh owed",
      "ain t",
      "ce ful",
      "ol og",
      "▁en j",
      "▁con s",
      "il ient",
      "il ity",
      "▁r ather",
      "▁cl os",
      "▁res ilient",
      "▁bot hered",
      "▁aw esome",
      "▁cra fty",
      "▁sing er",
      "▁bro ke",
      "▁ac qu",
      "▁sl ow",
      "erv ant",
      "▁kid ding",
      "▁dri ving",
      "▁tell ing",
      "wor k",
      "▁wr iting",
      "▁proble m",
      "▁suff ering",
      "▁sist er",
      "▁daught er",
      "▁colle ge",
      "▁accustom ed",
      "b and",
      "c in",
      "o ying",
      "r it",
      "s ervant",
      "▁a v",
      "▁t ri",
      "▁m or",
      "▁m on",
      "▁m akes",
      "in s",
      "▁w in",
      "▁w ar",
      "▁f ind",
      "▁b ed",
      "▁we ak",
      "▁c our",
      "▁c ap",
      "ll ow",
      "▁h us",
      "▁h iding",
      "▁d inner",
      "▁p aid",
      "▁go t",
      "ad er",
      "ad ed",
      "pp ed",
      "end ed",
      "▁do wn",
      "▁un c",
      "ol ute",
      "fe ss",
      "▁sm il",
      "▁home work",
      "▁pre p",
      "our ceful",
      "▁sp oke",
      "▁fin ally",
      "▁res ult",
      "▁res ourceful",
      "ick y",
      "▁pro te",
      "▁pro fess",
      "ak en",
      "ap e",
      "▁ar gu",
      "▁ar med",
      "▁off ended",
      "▁every body",
      "▁bl ack",
      "▁fo llow",
      "ian s",
      "▁cle an",
      "ine ss",
      "man ce",
      "ag ed",
      "▁la w",
      "▁per for",
      "▁le ader",
      "▁bu ying",
      "round ed",
      "▁cou nting",
      "▁mist ake",
      "▁int o",
      "ib ly",
      "▁ob servant",
      "▁abs olute",
      "▁fas cin",
      "▁hand s",
      "▁self ish",
      "▁forget ful",
      "▁incred ibly",
      "▁reas on",
      "▁ret ired",
      "▁sty lish",
      "▁enj oying",
      "▁hus band",
      "▁perfor mance",
      "a ching",
      "b r",
      "b bor",
      "e op",
      "f t",
      "m at",
      "o c",
      "t ic",
      "▁a cting",
      "he re",
      "ou d",
      "ou ld",
      "▁s ill",
      "▁s ell",
      "▁s aint",
      "▁to wn",
      "▁f it",
      "▁b rou",
      "▁b ab",
      "▁l et",
      "▁l oud",
      "▁d ays",
      "ar p",
      "▁p sy",
      "▁p eop",
      "le s",
      "et y",
      "▁be c",
      "▁e y",
      "all ing",
      "ee p",
      "▁do gs",
      "▁sh arp",
      "▁stu bbor",
      "ain ted",
      "il ty",
      "ress ing",
      "▁ex c",
      "▁di ffic",
      "are nt",
      "lf riend",
      "▁gir lfriend",
      "▁bl ame",
      "▁fa ir",
      "▁aw ay",
      "▁gu ilty",
      "▁sho cked",
      "▁will ing",
      "eak y",
      "▁swim ming",
      "▁conf ident",
      "▁dri ve",
      "▁ro om",
      "▁know n",
      "▁speak s",
      "▁fool ish",
      "▁sn eaky",
      "▁dep ressed",
      "▁te mp",
      "▁ast ute",
      "▁power ful",
      "ci al",
      "▁ty pe",
      "▁ent ire",
      "▁fir st",
      "▁wre ck",
      "rover ted",
      "▁acqu ainted",
      "▁tri p",
      "▁prote ct",
      "▁absolute ly",
      "▁sill y",
      "▁brou ght",
      "▁bab y",
      "▁peop le",
      "▁stubbor n",
      "▁diffic ult",
      "a ce",
      "b t",
      "f ety",
      "i fe",
      "m e",
      "o id",
      "o ld",
      "p s",
      "s ity",
      "t un",
      "u b",
      "u m",
      "u al",
      "u ct",
      "v or",
      "y er",
      "▁i m",
      "re ct",
      "▁t ou",
      "▁s ke",
      "▁re c",
      "▁y ell",
      "▁w inning",
      "▁he aring",
      "er k",
      "▁f ive",
      "▁f ish",
      "▁f ell",
      "▁f ix",
      "ed y",
      "▁not hing",
      "▁g am",
      "▁g ame",
      "▁g row",
      "▁we ight",
      "▁we ather",
      "or ri",
      "▁c ame",
      "en ly",
      "▁h at",
      "▁d ou",
      "▁d id",
      "▁p rom",
      "▁p atient",
      "an g",
      "it or",
      "▁am bitious",
      "▁for g",
      "▁for tun",
      "▁be l",
      "▁su g",
      "▁su dd",
      "▁e at",
      "▁e ach",
      "ry ing",
      "▁lo ved",
      "ul ar",
      "▁sor t",
      "▁so on",
      "▁ch o",
      "▁ch in",
      "▁ch os",
      "▁un d",
      "▁un iver",
      "ion able",
      "▁bus iness",
      "ge ous",
      "▁co oking",
      "mp loy",
      "▁ex pe",
      "▁mar y",
      "▁sa fety",
      "▁imp ort",
      "▁dis g",
      "▁sc old",
      "▁bot her",
      "▁off ice",
      "▁every one",
      "▁fo od",
      "▁eng aged",
      "▁beaut y",
      "no on",
      "▁over wor",
      "▁again st",
      "▁interest ing",
      "▁wat er",
      "mb er",
      "▁v ac",
      "▁gre edy",
      "▁rel ated",
      "▁thir ty",
      "▁fu ss",
      "▁brother s",
      "ib ility",
      "pt ical",
      "▁thing s",
      "▁after noon",
      "▁wal king",
      "▁drin k",
      "▁drin king",
      "▁cre ative",
      "▁ph ot",
      "▁stran ger",
      "ail able",
      "▁word s",
      "ne ss",
      "▁av ailable",
      "▁law yer",
      "▁ske ptical",
      "▁yell ed",
      "▁fortun ate",
      "▁sudd enly",
      "▁chos en",
      "▁univer sity",
      "▁expe cting",
      "▁import ant",
      "▁scold ed",
      "▁overwor ked",
      "▁vac ation",
      "a us",
      "c he",
      "c ing",
      "c ious",
      "e y",
      "f ore",
      "h y",
      "h ionable",
      "i er",
      "n ize",
      "s o",
      "t s",
      "t ure",
      "▁i gn",
      "▁a ust",
      "▁s ix",
      "▁re p",
      "in ion",
      "▁w ant",
      "▁f ired",
      "▁f ore",
      "ed ing",
      "▁b ri",
      "▁c ru",
      "▁c rit",
      "▁h ol",
      "▁h igh",
      "at ure",
      "▁l un",
      "▁p aying",
      "▁p arent",
      "an e",
      "an k",
      "an oid",
      "it er",
      "it ter",
      "st on",
      "▁st ared",
      "ra l",
      "ic s",
      "▁be fore",
      "▁all erg",
      "ent al",
      "▁my self",
      "ss ible",
      "al f",
      "al s",
      "im es",
      "▁as leep",
      "▁with out",
      "▁lo se",
      "▁lo aded",
      "am p",
      "ut ting",
      "end ent",
      "▁k iss",
      "▁k ey",
      "▁friend ly",
      "▁de v",
      "as e",
      "ion s",
      "ate ful",
      "▁tea ching",
      "▁any w",
      "▁sm oke",
      "▁bo ston",
      "ast er",
      "▁sa w",
      "▁help ing",
      "▁pre aching",
      "▁teacher s",
      "▁tall est",
      "▁di et",
      "▁sur rounded",
      "▁fee l",
      "▁sing ing",
      "th y",
      "▁mo v",
      "og nize",
      "▁se c",
      "▁op inion",
      "▁bu y",
      "▁par anoid",
      "▁somet imes",
      "▁mist akes",
      "▁music ian",
      "▁miss ing",
      "▁addic t",
      "▁sn akes",
      "ffic ient",
      "▁fas hionable",
      "▁char ming",
      "▁wal k",
      "▁hero in",
      "▁tur ning",
      "▁or d",
      "▁eas y",
      "▁eas ily",
      "▁gr ateful",
      "athe tic",
      "▁act ually",
      "▁fe w",
      "▁pract ice",
      "▁mor ning",
      "▁cap able",
      "▁let ting",
      "▁bec aus",
      "▁temp er",
      "▁rec ognize",
      "▁cho ir",
      "▁fuss y",
      "▁ign or",
      "▁aust ral",
      "▁cru el",
      "▁crit ic",
      "▁hol id",
      "▁lun ch",
      "▁parent s",
      "▁allerg ic",
      "▁becaus e",
      "e en",
      "e cial",
      "f ort",
      "g ly",
      "g ant",
      "i le",
      "i et",
      "i ke",
      "i able",
      "i ence",
      "k y",
      "l ves",
      "m ar",
      "o ssible",
      "p le",
      "p ular",
      "r on",
      "r ist",
      "s h",
      "u d",
      "u e",
      "u g",
      "u ll",
      "u red",
      "z ing",
      "▁a p",
      "▁a ss",
      "▁a uth",
      "▁t ake",
      "▁t ree",
      "▁m at",
      "▁m om",
      "▁m ill",
      "▁m inded",
      "▁s it",
      "▁s ent",
      "▁s ays",
      "▁re st",
      "in t",
      "er ful",
      "▁g or",
      "▁g ive",
      "▁g ard",
      "▁g ru",
      "▁g rave",
      "▁b i",
      "▁b ath",
      "▁we alth",
      "or y",
      "▁c or",
      "▁c ous",
      "▁h ad",
      "▁h ost",
      "▁h alf",
      "▁l an",
      "▁d ra",
      "▁p at",
      "▁p ic",
      "▁p un",
      "▁p utting",
      "an ce",
      "▁th ie",
      "▁am az",
      "▁in d",
      "▁st art",
      "▁st alling",
      "▁su n",
      "▁e ver",
      "▁e mploy",
      "▁u gly",
      "al ist",
      "ch ic",
      "▁al so",
      "▁j erk",
      "ro gant",
      "▁lo ss",
      "ea s",
      "ea king",
      "am bitious",
      "am ental",
      "▁li br",
      "▁wor ld",
      "▁k eep",
      "▁sh ower",
      "▁sh ould",
      "▁ch air",
      "▁ch rist",
      "▁un ha",
      "▁un ambitious",
      "▁de f",
      "▁de m",
      "▁ne igh",
      "se less",
      "se lves",
      "▁r uth",
      "▁bo at",
      "▁co ol",
      "▁co ps",
      "▁ex am",
      "▁sp ecial",
      "▁sp eaking",
      "▁di vor",
      "▁pl ace",
      "▁fin icky",
      "▁imp ossible",
      "▁child ish",
      "▁ar rogant",
      "▁po et",
      "▁po pular",
      "▁po int",
      "▁tra vel",
      "▁bl inded",
      "▁sur v",
      "▁love ly",
      "▁qu iet",
      "▁can ad",
      "ite ly",
      "▁sho es",
      "▁att ent",
      "ag es",
      "▁sleep ing",
      "app ed",
      "pe ct",
      "ie ve",
      "▁sk i",
      "▁swim mer",
      "▁star ved",
      "▁rel iable",
      "▁par k",
      "gu ages",
      "▁mist aken",
      "▁tr uth",
      "▁terri fied",
      "▁wr iter",
      "▁talk ative",
      "▁head ed",
      "▁abs ent",
      "▁complain ts",
      "▁was hing",
      "▁bre aking",
      "▁bre ak",
      "▁che ss",
      "▁che erful",
      "▁ev ening",
      "▁pain ting",
      "▁ins ensitive",
      "▁play er",
      "▁fight ing",
      "▁cat s",
      "▁ho ok",
      "▁ho pe",
      "go ing",
      "iv en",
      "▁tru e",
      "▁exp ens",
      "▁ext roverted",
      "▁prison ers",
      "▁pol ice",
      "▁mon th",
      "▁cour se",
      "▁argu ing",
      "▁follow ing",
      "▁clean ing",
      "▁fascin ating",
      "▁psy chic",
      "▁exc ited",
      "▁entire ly",
      "▁gam b",
      "▁forg iven",
      "▁bel ieve",
      "▁sug gest",
      "▁chin ese",
      "▁fore ig",
      "▁bri ght",
      "▁temper amental",
      "▁ignor ant",
      "▁holid ay",
      "fort able",
      "▁auth or",
      "▁mill ion",
      "▁gor geous",
      "▁gard en",
      "▁wealth y",
      "▁lan guages",
      "▁libr ary",
      "▁unha ppy",
      "▁ruth less",
      "▁divor ced",
      "a w",
      "a ct",
      "a ire",
      "b y",
      "c cer",
      "e at",
      "e ct",
      "g ed",
      "g es",
      "i or",
      "i us",
      "i ol",
      "l er",
      "l ac",
      "m it",
      "m ail",
      "n alist",
      "o od",
      "o per",
      "s ide",
      "t al",
      "t able",
      "u ent",
      "u ation",
      "w ort",
      "z e",
      "z zy",
      "▁ ed",
      "re t",
      "re me",
      "▁t re",
      "▁t id",
      "▁t ight",
      "he s",
      "▁m is",
      "▁m et",
      "▁m ight",
      "▁m athe",
      "▁m aster",
      "▁s im",
      "▁s ong",
      "▁s aying",
      "▁s ang",
      "▁w ife",
      "er man",
      "▁n am",
      "▁n ame",
      "▁to ky",
      "▁the se",
      "▁f il",
      "▁f ear",
      "▁g as",
      "▁g erman",
      "▁b or",
      "▁b ank",
      "▁we t",
      "▁we ir",
      "or ter",
      "or able",
      "▁c ri",
      "▁c ut",
      "▁p r",
      "▁p athetic",
      "it ion",
      "▁am ong",
      "▁in ter",
      "▁in de",
      "ve st",
      "ve ling",
      "ic ul",
      "ic ious",
      "▁an other",
      "▁su nd",
      "▁su sp",
      "▁e ight",
      "▁e fficient",
      "id ated",
      "out h",
      "od el",
      "im idated",
      "▁al ike",
      "▁j our",
      "ro l",
      "ea ble",
      "us ing",
      "us hing",
      "un te",
      "ct ual",
      "end s",
      "ist s",
      "▁so ld",
      "▁so ccer",
      "ir t",
      "ot ed",
      "▁k ill",
      "▁sh ip",
      "▁sh ape",
      "▁ch an",
      "▁ch amp",
      "ow ers",
      "▁un tal",
      "▁de c",
      "▁de bt",
      "ol unte",
      "▁con st",
      "il ar",
      "▁stud y",
      "▁stud ies",
      "▁us ing",
      "▁r is",
      "▁r ation",
      "▁co ff",
      "▁co oper",
      "mp y",
      "▁ex ce",
      "ig ious",
      "▁sa ve",
      "▁sa ving",
      "▁help ful",
      "▁pre s",
      "▁youn gest",
      "▁di zzy",
      "▁man ager",
      "os hed",
      "▁pro gress",
      "▁dis c",
      "▁ag gress",
      "▁sw eat",
      "▁tra in",
      "▁tra itor",
      "▁tra veling",
      "▁pers u",
      "▁sc hed",
      "▁sc ape",
      "▁bl ind",
      "▁fa ith",
      "▁fa ce",
      "▁fa il",
      "▁fa ult",
      "▁aw ake",
      "▁ad v",
      "▁ad orable",
      "▁dan ce",
      "▁dan cer",
      "▁dan cing",
      "▁v iol",
      "▁v olunte",
      "▁sl oshed",
      "▁le ft",
      "▁part ner",
      "▁star ted",
      "▁rel igious",
      "▁hur ry",
      "▁par ked",
      "▁kn itting",
      "▁guy s",
      "▁some one",
      "▁kid s",
      "▁cou ld",
      "▁cou ple",
      "▁certain ly",
      "▁tot al",
      "▁int imidated",
      "▁respons ibility",
      "▁id eas",
      "▁gen ius",
      "▁ra king",
      "▁char ge",
      "▁ve get",
      "▁ev en",
      "air s",
      "▁pain ter",
      "▁power less",
      "▁ins ane",
      "▁cont rol",
      "▁plan ted",
      "▁sto pped",
      "▁trust ing",
      "▁trust wort",
      "go at",
      "▁tru ly",
      "▁novel ist",
      "▁gr and",
      "▁ext reme",
      "▁dream ing",
      "▁pol ite",
      "▁cons id",
      "▁clos er",
      "▁smil ing",
      "▁smil ed",
      "▁prep ared",
      "▁black mail",
      "▁hands ome",
      "▁sell ing",
      "▁ey es",
      "▁difficult ies",
      "▁tou ched",
      "▁fell er",
      "▁und ressing",
      "▁phot og",
      "▁rep lac",
      "▁anyw here",
      "▁ap olog",
      "▁mom ent",
      "▁sit uation",
      "▁gru mpy",
      "▁pic ture",
      "▁pun ctual",
      "▁amaz ing",
      "▁christ ians",
      "▁neigh bor",
      "▁ski ing",
      "▁expens ive",
      "▁gamb ler",
      "▁million aire",
      "▁tid y",
      "▁mathe mat",
      "▁nam es",
      "▁toky o",
      "▁fil thy",
      "▁weir d",
      "▁sund ays",
      "▁jour nalist",
      "▁champ ion",
      "▁untal ented",
      "▁ration al",
      "▁coff ee",
      "▁cooper ating",
      "▁aggress ive",
      "▁scape goat",
      "▁trustwort hy",
      "▁extreme ly",
      "▁replac eable",
      "a x",
      "a cting",
      "b j",
      "b el",
      "f l",
      "f air",
      "g ible",
      "i en",
      "i al",
      "j u",
      "l uck",
      "m o",
      "m in",
      "n ers",
      "r ated",
      "s w",
      "u le",
      "u mb",
      "v ious",
      "re acting",
      "▁t our",
      "▁t eet",
      "▁m ed",
      "▁m ay",
      "▁m ind",
      "▁m odel",
      "ou ght",
      "ou nd",
      "▁s en",
      "▁s et",
      "▁y est",
      "in ary",
      "in itely",
      "▁w he",
      "▁w an",
      "▁w it",
      "▁w ind",
      "▁he ight",
      "▁he art",
      "er day",
      "▁n ature",
      "▁f an",
      "▁f ut",
      "▁f eet",
      "▁o pp",
      "▁g rou",
      "▁b en",
      "▁b ra",
      "▁c e",
      "▁c it",
      "▁c ro",
      "▁c ard",
      "▁c ity",
      "▁c ustom",
      "ll y",
      "ll ed",
      "ll ent",
      "en ager",
      "▁h ow",
      "▁h um",
      "▁h orri",
      "▁l ad",
      "▁l ine",
      "▁d ar",
      "▁d ating",
      "is ed",
      "is hing",
      "ar ian",
      "▁p i",
      "▁p ea",
      "▁p ru",
      "▁p icky",
      "▁p ull",
      "an y",
      "▁th ought",
      "it her",
      "st airs",
      "▁in vest",
      "ri ct",
      "▁st un",
      "▁st ab",
      "▁st ation",
      "▁st rict",
      "▁for ty",
      "ra ged",
      "ic h",
      "▁be er",
      "▁an sw",
      "▁su bj",
      "▁e ar",
      "▁u seless",
      "▁on ce",
      "al d",
      "al ian",
      "od uct",
      "▁me mber",
      "▁j itter",
      "▁lo w",
      "▁lo ok",
      "ea f",
      "un e",
      "un der",
      "un istic",
      "ust ing",
      "end ing",
      "▁li ght",
      "ot hes",
      "▁it alian",
      "▁sh ot",
      "▁sh aken",
      "▁sh orter",
      "▁than k",
      "ow n",
      "▁un re",
      "▁un ins",
      "▁un mar",
      "▁un luck",
      "▁out going",
      "ce ited",
      "▁ne at",
      "▁ne arly",
      "▁con ceited",
      "▁see med",
      "ate st",
      "▁tea ch",
      "▁her self",
      "▁any body",
      "te ous",
      "▁com fortable",
      "▁com mit",
      "▁us ually",
      "▁sm all",
      "▁sm ile",
      "ast e",
      "ast ated",
      "▁ex per",
      "ig ning",
      "▁wh ite",
      "▁fre sh",
      "▁pre gn",
      "▁sp o",
      "▁di rect",
      "▁man y",
      "▁cl osed",
      "▁cl othes",
      "▁res pect",
      "ant ly",
      "▁dis loy",
      "▁ag ree",
      "ep endent",
      "▁dr ug",
      "▁comp et",
      "▁comp any",
      "ort unistic",
      "▁bl ue",
      "▁bea ch",
      "▁fa ct",
      "▁fa ced",
      "no xious",
      "▁over reacting",
      "▁ad ult",
      "▁qu ick",
      "▁wat ched",
      "▁strong er",
      "▁mo ving",
      "▁gre en",
      "▁gre atest",
      "▁ru ined",
      "iz ing",
      "iz en",
      "▁sl apped",
      "▁le ss",
      "▁ple ase",
      "▁part ners",
      "▁star ving",
      "▁doctor s",
      "▁ter ms",
      "▁cu p",
      "▁par is",
      "▁lear n",
      "dic ed",
      "ph one",
      "▁danger ous",
      "▁ten se",
      "▁inc orri",
      "▁beg inner",
      "▁ro ll",
      "▁ob noxious",
      "▁fl irt",
      "▁fl owers",
      "▁call ing",
      "▁speak er",
      "▁embarrass ing",
      "▁ra in",
      "▁te enager",
      "▁book s",
      "▁ast on",
      "▁far mer",
      "▁or der",
      "▁boss y",
      "▁proble ms",
      "▁ty p",
      "▁sto od",
      "▁stran ge",
      "▁perfect ly",
      "▁exp ert",
      "▁coward s",
      "▁health y",
      "▁pract ic",
      "olog ist",
      "▁clos et",
      "▁find ing",
      "▁cour teous",
      "▁unc le",
      "▁prep aring",
      "▁profess or",
      "▁argu e",
      "▁fascin ated",
      "▁ey e",
      "▁fair ly",
      "▁fix ing",
      "▁grow n",
      "▁grow ing",
      "▁dou ble",
      "▁did n",
      "▁disg usted",
      "▁disg usting",
      "▁key s",
      "▁dev astated",
      "▁diet ing",
      "▁mov ie",
      "▁ord inary",
      "▁mat ch",
      "▁bi ased",
      "▁cor rect",
      "▁pat ience",
      "▁thie f",
      "▁ind ependent",
      "▁keep ing",
      "▁def initely",
      "▁dem ented",
      "▁canad ian",
      "▁attent ion",
      "▁sim ilar",
      "▁fear less",
      "▁cri min",
      "▁pr oduct",
      "▁susp icious",
      "▁eight een",
      "▁ris k",
      "▁exce llent",
      "▁pres ent",
      "▁sweat er",
      "▁sched ule",
      "▁faith ful",
      "▁volunte ering",
      "▁veget arian",
      "▁blackmail ed",
      "▁apolog ize",
      "▁mathemat ics",
      "ien ced",
      "ju diced",
      "▁teet h",
      "▁yest erday",
      "▁wan ted",
      "▁wind ow",
      "▁fut ure",
      "▁opp ortunistic",
      "▁ben ch",
      "▁cit izen",
      "▁horri ble",
      "▁dar k",
      "▁pea ce",
      "▁pru de",
      "▁pull ing",
      "▁stun ned",
      "▁stab bed",
      "▁subj ect",
      "▁jitter y",
      "▁unins ured",
      "▁unmar ried",
      "▁unluck y",
      "▁exper ienced",
      "▁pregn ant",
      "▁disloy al",
      "▁agree ment",
      "▁incorri gible",
      "▁product ive",
      "a v",
      "a ly",
      "a ff",
      "b all",
      "b ul",
      "b um",
      "c y",
      "c le",
      "c om",
      "c king",
      "c ient",
      "c ert",
      "c ence",
      "f ather",
      "g ot",
      "g ers",
      "k et",
      "l im",
      "n a",
      "o ch",
      "o ze",
      "o lly",
      "p her",
      "p os",
      "r ating",
      "s at",
      "s ive",
      "t ain",
      "t ier",
      "v en",
      "w ay",
      "w ear",
      "w ife",
      "w ich",
      "x ible",
      "y s",
      "y ot",
      "y cle",
      "z il",
      "▁ rough",
      "▁a cce",
      "he art",
      "▁m in",
      "▁m en",
      "▁m ot",
      "▁m ost",
      "▁m ag",
      "▁m ond",
      "▁m ath",
      "▁m aid",
      "▁s y",
      "▁s in",
      "▁s al",
      "▁s and",
      "▁s ons",
      "▁s ens",
      "▁s outh",
      "▁re g",
      "▁re se",
      "▁y or",
      "▁w is",
      "▁w all",
      "▁w ould",
      "▁he at",
      "▁he el",
      "er ature",
      "▁n ur",
      "▁no on",
      "▁f r",
      "▁f le",
      "▁f ig",
      "▁f asting",
      "ed s",
      "▁g on",
      "▁g ra",
      "▁g rounded",
      "▁b r",
      "▁b at",
      "▁b le",
      "▁b ic",
      "▁b ir",
      "▁b as",
      "▁b ru",
      "▁b ald",
      "▁we st",
      "or ough",
      "or bed",
      "▁c ell",
      "en ic",
      "▁h ar",
      "▁h it",
      "▁h om",
      "▁h ist",
      "▁h ired",
      "at te",
      "▁d et",
      "▁d ig",
      "▁d eep",
      "▁d umb",
      "▁d eaf",
      "is m",
      "is ing",
      "is on",
      "is ion",
      "is ions",
      "ar ate",
      "▁p ot",
      "▁p os",
      "▁th ri",
      "▁th orough",
      "it ating",
      "it led",
      "it che",
      "▁am using",
      "▁am mo",
      "st ood",
      "▁in fl",
      "ri c",
      "ri gu",
      "le br",
      "▁st ressed",
      "▁st ory",
      "et ic",
      "ra pher",
      "▁be e",
      "▁an im",
      "▁su m",
      "▁su ed",
      "▁su per",
      "▁e g",
      "▁e l",
      "▁e le",
      "▁e ast",
      "▁e ither",
      "id d",
      "▁on es",
      "ss ibility",
      "▁me ant",
      "▁ha pp",
      "▁al bum",
      "▁as k",
      "▁as ian",
      "▁j az",
      "▁j olly",
      "ro om",
      "ea gu",
      "us es",
      "us ional",
      "one er",
      "ul sive",
      "ct ion",
      "▁so ci",
      "▁so cial",
      "▁li e",
      "▁wor st",
      "▁ab o",
      "▁do or",
      "▁k ore",
      "▁k yot",
      "▁k arate",
      "▁k itche",
      "▁stu ff",
      "▁ch ick",
      "▁now here",
      "▁un p",
      "▁out side",
      "ce ss",
      "ce pt",
      "▁ne got",
      "▁en erg",
      "▁con d",
      "▁con cent",
      "▁con cert",
      "▁any one",
      "il ing",
      "▁sm oking",
      "▁bo oze",
      "▁sa les",
      "our s",
      "▁sp y",
      "▁sp ent",
      "▁sp ends",
      "▁man ag",
      "▁pl aste",
      "▁res igning",
      "ak er",
      "ep y",
      "▁ar rest",
      "▁po op",
      "▁po ison",
      "▁po ssibility",
      "▁tra pped",
      "▁sc ient",
      "▁sc aring",
      "▁new s",
      "▁new com",
      "▁off ic",
      "▁bl ast",
      "▁bl oc",
      "▁love s",
      "est s",
      "▁cle arly",
      "▁gu ests",
      "▁pret tier",
      "ru pt",
      "▁our selves",
      "▁qu itter",
      "▁can n",
      "▁under wear",
      "▁free zing",
      "▁lit erature",
      "▁sho ck",
      "▁sho ok",
      "▁tw ins",
      "▁big ot",
      "▁att ack",
      "ag in",
      "ag ious",
      "ag ging",
      "▁wat ch",
      "▁bit ter",
      "▁per cept",
      "iz ed",
      "▁le g",
      "▁le gs",
      "▁rel ax",
      "▁wom en",
      "▁op t",
      "▁hur ting",
      "▁par ty",
      "▁lear ned",
      "▁meet ing",
      "ass es",
      "▁dri ver",
      "▁attract ed",
      "▁inc l",
      "▁int roverted",
      "▁int rigu",
      "▁del usional",
      "▁ob vious",
      "▁own ers",
      "ac he",
      "▁fl ab",
      "▁fl uent",
      "▁fl atte",
      "▁run ner",
      "▁abs orbed",
      "▁fool ing",
      "▁ra c",
      "▁ra re",
      "▁dep endent",
      "▁te le",
      "▁ev il",
      "▁class mat",
      "▁sweet heart",
      "▁success ful",
      "▁tur n",
      "▁tur ned",
      "▁americ a",
      "▁ins ide",
      "▁inno cence",
      "▁cont ent",
      "▁cont ented",
      "▁cont agious",
      "▁coll eagu",
      "▁acc ident",
      "▁wonder ing",
      "▁app ro",
      "▁app les",
      "▁cre epy",
      "▁ph one",
      "▁ph ys",
      "▁forget ting",
      "▁ok ay",
      "▁hot el",
      "▁incred ible",
      "▁house wife",
      "iv ated",
      "▁ent itled",
      "▁ill ness",
      "▁other s",
      "▁prison er",
      "▁act ress",
      "▁fe eding",
      "▁cons cient",
      "▁mor ons",
      "▁cap tain",
      "▁profess ion",
      "▁profess ional",
      "▁psy ched",
      "▁exc uses",
      "▁im agin",
      "▁dou bt",
      "▁prom oted",
      "ness es",
      "▁high ly",
      "▁kiss ed",
      "▁mov ies",
      "▁sec ret",
      "▁ord ers",
      "▁austral ian",
      "▁critic ism",
      "▁ass ist",
      "▁cous in",
      "▁cous ins",
      "▁sun day",
      "▁employ ed",
      "▁hope less",
      "▁foreig n",
      "▁foreig ner",
      "▁ed ges",
      "▁mis under",
      "▁bor n",
      "▁cut er",
      "▁inde ed",
      "▁chan ging",
      "▁dec isions",
      "▁const antly",
      "▁disc ou",
      "▁persu aded",
      "▁viol in",
      "▁grand father",
      "▁consid ering",
      "▁photog enic",
      "bel ie",
      "▁sen ior",
      "▁wit nesses",
      "▁height s",
      "▁grou p",
      "▁bra zil",
      "▁ce lebr",
      "▁custom er",
      "▁hum ble",
      "▁lad y",
      "▁pi oneer",
      "▁invest ig",
      "▁neat ly",
      "▁respect ed",
      "▁fact s",
      "▁aston ished",
      "▁practic ally",
      "▁crimin als",
      "sat isfied",
      "▁mot ivated",
      "▁mond ays",
      "▁sand wich",
      "▁yor k",
      "▁heel s",
      "▁nur se",
      "▁fle xible",
      "▁fig ure",
      "▁gon na",
      "▁ble eding",
      "▁bic ycle",
      "▁bir th",
      "▁bru ised",
      "▁cell phone",
      "▁hom es",
      "▁dig ging",
      "▁thri lled",
      "▁anim als",
      "▁jaz z",
      "▁kyot o",
      "▁kitche n",
      "▁stuff ed",
      "▁chick en",
      "▁negot i",
      "▁energ y",
      "▁concent rating",
      "▁manag ing",
      "▁plaste red",
      "▁poop ed",
      "▁scient ist",
      "▁bloc king",
      "▁percept ive",
      "▁relax ed",
      "▁intrigu ed",
      "▁obvious ly",
      "▁flatte red",
      "▁classmat es",
      "▁conscient ious",
      "▁misunder stood",
      "a i",
      "a j",
      "a le",
      "a ust",
      "b er",
      "b ly",
      "b ted",
      "b erg",
      "b ia",
      "b led",
      "c o",
      "c on",
      "c ard",
      "c ure",
      "c ise",
      "d ays",
      "d get",
      "d rated",
      "e or",
      "e ying",
      "e ked",
      "e mploy",
      "f a",
      "f le",
      "f ast",
      "f ering",
      "f ident",
      "f riend",
      "f ull",
      "g ar",
      "g an",
      "g ging",
      "g ia",
      "h od",
      "h ol",
      "h ost",
      "i f",
      "i o",
      "i ally",
      "i ved",
      "i pped",
      "i ft",
      "i ologist",
      "l and",
      "l ated",
      "l ance",
      "m on",
      "m ate",
      "m ined",
      "m other",
      "m une",
      "n c",
      "n s",
      "n ish",
      "n own",
      "o ot",
      "o ck",
      "o ice",
      "p it",
      "p ort",
      "p oke",
      "p aw",
      "r re",
      "r at",
      "r ture",
      "s er",
      "s pect",
      "t ee",
      "t ie",
      "t ane",
      "t ale",
      "u gh",
      "u ss",
      "u able",
      "u man",
      "u ming",
      "u ding",
      "u mber",
      "v ably",
      "v ision",
      "w ing",
      "w el",
      "w rit",
      "w een",
      "y al",
      "y ond",
      "▁ end",
      "▁i rre",
      "re ed",
      "re amed",
      "re judiced",
      "▁a he",
      "▁a ver",
      "▁a ra",
      "▁a id",
      "▁a ir",
      "▁a pt",
      "▁a ud",
      "▁t at",
      "▁t as",
      "▁t ick",
      "▁m er",
      "▁m al",
      "▁m as",
      "▁m ur",
      "▁m ach",
      "▁m outh",
      "▁m idd",
      "▁s le",
      "▁s il",
      "▁s ep",
      "▁s erv",
      "▁s ize",
      "▁s ound",
      "▁re d",
      "▁re for",
      "▁re nt",
      "▁re me",
      "▁re mar",
      "▁re nown",
      "in ate",
      "in te",
      "▁w ra",
      "▁w ide",
      "▁he ld",
      "▁he av",
      "er ate",
      "er mined",
      "▁n at",
      "▁n ar",
      "▁n ap",
      "▁n aught",
      "▁n agging",
      "▁n umber",
      "▁to ward",
      "▁to rture",
      "▁no ble",
      "▁f ly",
      "▁f all",
      "▁f ate",
      "▁f ie",
      "▁f ran",
      "▁f ire",
      "▁f alling",
      "▁f ron",
      "▁f ishing",
      "▁o ct",
      "▁o bed",
      "▁o dd",
      "ed ic",
      "▁g al",
      "▁g ather",
      "▁g eor",
      "▁g host",
      "▁b ar",
      "▁b et",
      "▁b aking",
      "▁b less",
      "▁b read",
      "▁b ody",
      "▁b ound",
      "▁b aff",
      "▁b aker",
      "▁we nt",
      "or s",
      "or ting",
      "or se",
      "▁c as",
      "▁c ol",
      "▁c ant",
      "▁c rying",
      "▁c ase",
      "en seless",
      "▁h y",
      "▁h an",
      "▁h ate",
      "▁h os",
      "▁h ated",
      "▁h itting",
      "▁h ours",
      "▁h uman",
      "▁h orse",
      "▁l aying",
      "ver ing",
      "▁d j",
      "▁d ent",
      "▁d ro",
      "▁d row",
      "▁d read",
      "▁d edic",
      "is it",
      "on vinced",
      "on tane",
      "ar ch",
      "ar ated",
      "ar med",
      "▁p u",
      "▁p en",
      "▁p ra",
      "▁p ill",
      "▁p ast",
      "▁p ur",
      "▁p ian",
      "▁p ass",
      "▁p ressing",
      "an s",
      "an ish",
      "▁th ose",
      "it ation",
      "it ies",
      "▁go ss",
      "▁go lf",
      "st er",
      "st card",
      "st inate",
      "▁in ch",
      "▁in se",
      "▁in fect",
      "ri ved",
      "ri age",
      "ri eked",
      "ad e",
      "ad ow",
      "ad io",
      "▁st or",
      "▁st ay",
      "▁st ir",
      "▁st ore",
      "▁st and",
      "▁st ru",
      "▁st op",
      "om y",
      "om ed",
      "om an",
      "om fortable",
      "ra geous",
      "ic ist",
      "ic ag",
      "ic apped",
      "▁be ar",
      "▁be side",
      "▁be yond",
      "▁an aly",
      "▁su it",
      "▁su fficient",
      "▁su spect",
      "▁e art",
      "▁e qu",
      "id ed",
      "▁all ow",
      "ss age",
      "al ing",
      "al uable",
      "ld ing",
      "▁me ssage",
      "▁ha ir",
      "▁al armed",
      "▁j u",
      "▁j am",
      "▁j oin",
      "ro ad",
      "ro ph",
      "▁lo ose",
      "▁lo yal",
      "ea se",
      "us h",
      "us ive",
      "am aged",
      "es itting",
      "ut ing",
      "ut er",
      "ut ter",
      "ct ric",
      "ust y",
      "ust rated",
      "ist ing",
      "ist oc",
      "▁so fa",
      "▁li ve",
      "▁li es",
      "▁li able",
      "▁li ved",
      "ot ing",
      "ot ball",
      "▁wor thy",
      "▁gl asses",
      "▁ab ility",
      "▁ab road",
      "▁do omed",
      "▁k ep",
      "ck s",
      "▁ri ver",
      "▁ri ding",
      "▁ri fle",
      "▁sh iver",
      "▁sh rieked",
      "▁sh adow",
      "▁af fair",
      "ke y",
      "▁ch ub",
      "▁ch icag",
      "▁him self",
      "▁un for",
      "▁un fair",
      "▁un belie",
      "▁un satisfied",
      "▁un employ",
      "▁un inte",
      "▁out raged",
      "▁de ce",
      "▁de hy",
      "ter n",
      "ce re",
      "▁ne ck",
      "as hed",
      "ion ist",
      "ol itely",
      "▁see king",
      "se vering",
      "▁her s",
      "il ities",
      "▁com ed",
      "▁up stairs",
      "▁us ual",
      "▁sm ell",
      "▁sm ok",
      "▁sm oot",
      "▁sm ashed",
      "▁r ing",
      "▁r at",
      "▁r adio",
      "▁r usty",
      "▁co at",
      "▁co ast",
      "ast ed",
      "mp athetic",
      "▁ex act",
      "▁fre ak",
      "▁mar ry",
      "▁mar rying",
      "▁mar ket",
      "▁mar riage",
      "▁sa v",
      "▁help less",
      "▁pre cious",
      "▁pre judiced",
      "▁pre cise",
      "ur ity",
      "▁sp ot",
      "▁sp ort",
      "▁sp ok",
      "▁sp ies",
      "▁sp ontane",
      "▁sp anish",
      "art ment",
      "▁di ed",
      "▁di ab",
      "▁fin ishing",
      "▁fin nish",
      "▁cl ub",
      "▁cl erk",
      "▁cl aust",
      "▁cl ock",
      "ack er",
      "qu e",
      "ant ic",
      "▁imp ress",
      "▁imp ulsive",
      "▁imp olitely",
      "▁dis ag",
      "▁dis ob",
      "▁dis pos",
      "▁dis ease",
      "▁ag reed",
      "ap table",
      "▁sw iss",
      "▁sw amp",
      "▁ar rived",
      "▁ar istoc",
      "▁wa it",
      "▁po ol",
      "▁po stcard",
      "▁tra ck",
      "▁tra ffic",
      "▁comp uter",
      "▁sc are",
      "▁sc reamed",
      "ort ive",
      "▁inv itation",
      "▁new sp",
      "▁who le",
      "▁bl ushing",
      "▁fa ke",
      "▁fa vor",
      "▁fa cing",
      "▁fa bul",
      "▁aw full",
      "▁fo x",
      "▁fo otball",
      "rest ed",
      "▁liar s",
      "▁eng ine",
      "▁eng land",
      "▁over con",
      "▁pret ending",
      "ru ction",
      "▁ad aptable",
      "▁qu itting",
      "▁under age",
      "▁free lance",
      "▁hard wor",
      "▁sho p",
      "tle tale",
      "▁tw in",
      "▁tw isting",
      "▁sing s",
      "▁big gest",
      "▁girl s",
      "get table",
      "ract ed",
      "▁att ac",
      "ob er",
      "ob ic",
      "▁wat ering",
      "ation s",
      "ation sh",
      "ons cious",
      "mb ling",
      "▁trou bled",
      "▁car rying",
      "▁la ugh",
      "▁bad ly",
      "▁supp ortive",
      "ult ure",
      "▁mo ve",
      "▁mo ody",
      "▁sk ate",
      "▁sk ating",
      "▁v oice",
      "▁v isit",
      "▁v aluable",
      "▁mad ly",
      "▁per severing",
      "▁job s",
      "▁ru in",
      "▁ru ss",
      "▁ru les",
      "▁sl im",
      "▁sl ipped",
      "▁sl acker",
      "▁le an",
      "▁part ies",
      "▁part icul",
      "▁rel ie",
      "▁rel ationsh",
      "▁op ening",
      "▁bu ild",
      "▁bu dget",
      "▁lear ner",
      "▁conf ron",
      "▁some w",
      "▁understand s",
      "ass ing",
      "▁mus lim",
      "▁cou nt",
      "▁cou rageous",
      "▁care less",
      "ree ing",
      "▁boy s",
      "▁boy friend",
      "▁tr usted",
      "▁beg ging",
      "▁del uding",
      "▁terri bly",
      "▁respons ib",
      "▁ro b",
      "▁ro pe",
      "▁miss ed",
      "▁ob stinate",
      "▁wr ite",
      "▁them selves",
      "▁call ous",
      "▁talk er",
      "▁nor th",
      "▁dist racted",
      "▁sn ow",
      "▁ser ved",
      "▁bre ast",
      "▁bre ath",
      "▁char act",
      "▁char ges",
      "▁dep artment",
      "▁real ize",
      "▁hand ling",
      "▁hand icapped",
      "▁class mate",
      "▁sweet est",
      "▁art icul",
      "▁ast ron",
      "▁tur key",
      "▁or gan",
      "▁hous esitting",
      "▁des k",
      "▁plan s",
      "▁plan ning",
      "▁play ers",
      "▁app le",
      "▁app arent",
      "▁week days",
      "▁cre am",
      "▁sto le",
      "▁sto ck",
      "▁stran gers",
      "▁anno y",
      "▁suff oc",
      "▁cook ie",
      "▁think er",
      "▁perfect ionist",
      "▁full y",
      "▁cat ching",
      "▁hot tie",
      "chool ed",
      "iv ors",
      "▁reas ons",
      "▁fir ing",
      "▁succeed ed",
      "▁american s",
      "az ine",
      "sp assing",
      "▁wre cked",
      "▁dream s",
      "▁dream er",
      "rover t",
      "aint ance",
      "olog y",
      "▁clos ing",
      "▁acqu aintance",
      "▁slow ly",
      "▁slow poke",
      "▁war m",
      "▁war ming",
      "▁down stairs",
      "▁unc onvinced",
      "▁unc omfortable",
      "▁unc onscious",
      "▁reason able",
      "oc ating",
      "▁sell s",
      "▁temp ting",
      "▁im age",
      "▁im mune"
    ]
  }
}