{
  "version": "1.0",
  "truncation": null,
  "padding": null,
  "added_tokens": [
    {
      "id": 0,
      "content": "<unk>",
      "single_word": false,
      "lstrip": false,
      "rstrip": false,
      "normalized": false,
      "special": true
    },
    {
      "id": 1,
      "content": "<s>",
      "single_word": false,
      "lstrip": false,
      "rstrip": false,
      "normalized": false,
      "special": true
    },
    {
      "id": 2,
      "content": "</s>",
      "single_word": false,
      "lstrip": false,
      "rstrip": false,
      "normalized": false,
      "special": true
    },
    {
      "id": 3,
      "content": "<pad>",
      "single_word": false,
      "lstrip": false,
      "rstrip": false,
      "normalized": false,
      "special": true
    }
  ],
  "normalizer": null,
  "pre_tokenizer": {
    "type": "Metaspace",
    "replacement": "▁",
    "add_prefix_space": true
  },
  "post_processor": {
    "type": "TemplateProcessing",
    "single": [
      {
        "SpecialToken": {
          "id": "<s>",
          "type_id": 0
        }
      },
      {
        "Sequence": {
          "id": "A",
          "type_id": 0
        }
      },
      {
        "SpecialToken": {
          "id": "</s>",
          "type_id": 0
        }
      }
    ],
    "pair": [
      {
        "SpecialToken": {
          "id": "<s>",
          "type_id": 0
        }
      },
      {
        "Sequence": {
          "id": "A",
          "type_id": 0
        }
      },
      {
        "SpecialToken": {
          "id": "</s>",
          "type_id": 0
        }
      },
      {
        "Sequence": {
          "id": "B",
          "type_id": 0
        }
      },
      {
        "SpecialToken": {
          "id": "</s>",
          "type_id": 0
        }
      }
    ],
    "special_tokens": {
      "</s>": {
        "id": "</s>",
        "ids": [
          2
        ],
        "tokens": [
          "</s>"
        ]
      },
      "<s>": {
        "id": "<s>",
        "ids": [
          1
        ],
        "tokens": [
          "<s>"
        ]
      }
    }
  },
  "decoder": null,
  "model": {
    "type": "BPE",
    "dropout": null,
    "unk_token": "<unk>",
    "continuing_subword_prefix": null,
    "end_of_word_suffix": null,
    "fuse_unk": false,
    "vocab": {
      "<unk>": 0,
      "<s>": 1,
      "</s>": 2,
      "<pad>": 3,
      "\n": 4,
      "!": 5,
      ".": 6,
      "?": 7,
      "@": 8,
      "a": 9,
      "b": 10,
      "c": 11,
      "d": 12,
      "e": 13,
      "f": 14,
      "g": 15,
      "h": 16,
      "i": 17,
      "j": 18,
      "k": 19,
      "l": 20,
      "m": 21,
      "n": 22,
      "o": 23,
      "p": 24,
      "q": 25,
      "r": 26,
      "s": 27,
      "t": 28,
      "u": 29,
      "v": 30,
      "w": 31,
      "x": 32,
      "y": 33,
      "z": 34,
      "▁": 35,
      "▁.": 36,
      "▁.\n": 37,
      "es": 38,
      "▁s": 39,
      "ou": 40,
      "▁e": 41,
      "▁j": 42,
      "▁t": 43,
      "▁p": 44,
      "is": 45,
      "▁a": 46,
      "▁je": 47,
      "▁d": 48,
      "▁n": 49,
      "nt": 50,
      "ous": 51,
      "le": 52,
      "▁v": 53,
      "▁c": 54,
      "re": 55,
      "▁su": 56,
      "▁es": 57,
      "@@": 58,
      "▁i": 59,
      "▁suis": 60,
      "▁m": 61,
      "▁pa": 62,
      "on": 63,
      "▁de": 64,
      "▁est": 65,
      "▁vous": 66,
      "▁il": 67,
      "▁pas": 68,
      "▁et": 69,
      "▁f": 70,
      "ai": 71,
      "lle": 72,
      "er": 73,
      "▁l": 74,
      "▁en": 75,
      "▁so": 76,
      "un": 77,
      "ent": 78,
      "▁nous": 79,
      "qu": 80,
      "▁tu": 81,
      "▁un": 82,
      "▁etes": 83,
      "▁tr": 84,
      "eu": 85,
      "▁ne": 86,
      "en": 87,
      "mm": 88,
      "oi": 89,
      "▁elle": 90,
      "our": 91,
      "▁b": 92,
      "te": 93,
      "us": 94,
      "an": 95,
      "▁qu": 96,
      "ais": 97,
      "▁somm": 98,
      "▁sommes": 99,
      "or": 100,
      "ti": 101,
      "ant": 102,
      "▁ai": 103,
      "ne": 104,
      "▁la": 105,
      "ment": 106,
      "▁g": 107,
      "▁re": 108,
      "▁des": 109,
      "▁que": 110,
      "ri": 111,
      "▁h": 112,
      "▁le": 113,
      "▁co": 114,
      "▁tres": 115,
      "se": 116,
      "▁me": 117,
      "ons": 118,
      "▁ce": 119,
      "ll": 120,
      "▁ch": 121,
      "▁av": 122,
      "▁tou": 123,
      "▁ma": 124,
      "▁sont": 125,
      "ro": 126,
      "res": 127,
      "▁pl": 128,
      "ci": 129,
      "mp": 130,
      "▁te": 131,
      "ain": 132,
      "▁une": 133,
      "▁par": 134,
      "ie": 135,
      "ch": 136,
      "de": 137,
      "▁pour": 138,
      "▁ils": 139,
      "ux": 140,
      "▁plus": 141,
      "eur": 142,
      "ot": 143,
      "in": 144,
      "ort": 145,
      "ue": 146,
      "ar": 147,
      "ble": 148,
      "lles": 149,
      "▁fai": 150,
      "si": 151,
      "▁in": 152,
      "▁o": 153,
      "ra": 154,
      "oir": 155,
      "▁tout": 156,
      "rai": 157,
      "▁am": 158,
      "que": 159,
      "eux": 160,
      "ran": 161,
      "ien": 162,
      "ille": 163,
      "▁si": 164,
      "ce": 165,
      "ati": 166,
      "▁vais": 167,
      "cu": 168,
      "▁elles": 169,
      "▁au": 170,
      "onne": 171,
      "ve": 172,
      "ui": 173,
      "▁as": 174,
      "▁pro": 175,
      "▁moi": 176,
      "pe": 177,
      "au": 178,
      "▁du": 179,
      "ge": 180,
      "▁mon": 181,
      "ole": 182,
      "▁pre": 183,
      "▁sur": 184,
      "me": 185,
      "▁se": 186,
      "!\n": 187,
      "▁!\n": 188,
      "jour": 189,
      "di": 190,
      "ff": 191,
      "▁tro": 192,
      "▁fort": 193,
      "▁con": 194,
      "eure": 195,
      "▁ave": 196,
      "ans": 197,
      "▁desole": 198,
      "it": 199,
      "▁train": 200,
      "▁vrai": 201,
      "co": 202,
      "▁heure": 203,
      "i@@": 204,
      "▁cont": 205,
      "mme": 206,
      "at": 207,
      "ur": 208,
      "▁trop": 209,
      "▁ici": 210,
      "om": 211,
      "▁toi": 212,
      "▁ca": 213,
      "che": 214,
      "▁toujour": 215,
      "▁toujours": 216,
      "▁tous": 217,
      "▁les": 218,
      "▁an": 219,
      "ante": 220,
      "▁vraiment": 221,
      "▁vi": 222,
      "r@@": 223,
      "▁ap": 224,
      "av": 225,
      "▁at": 226,
      "ig": 227,
      "▁y": 228,
      "nte": 229,
      "la": 230,
      "?\n": 231,
      "▁?\n": 232,
      "use": 233,
      "able": 234,
      "otre": 235,
      "▁avec": 236,
      "end": 237,
      "gue": 238,
      "▁bien": 239,
      "▁dans": 240,
      "ir": 241,
      "▁imp": 242,
      "▁avoir": 243,
      "▁be": 244,
      "▁ent": 245,
      "▁gran": 246,
      "ger": 247,
      "▁trav": 248,
      "▁bon": 249,
      "core": 250,
      "▁encore": 251,
      "ccu": 252,
      "les": 253,
      "▁di": 254,
      "▁tom": 255,
      "ab": 256,
      "▁per": 257,
      "▁fais": 258,
      "rie": 259,
      "▁travai": 260,
      "▁fati": 261,
      "l@@": 262,
      "▁pe": 263,
      "ard": 264,
      "▁ar": 265,
      "▁occu": 266,
      "tu": 267,
      "tes": 268,
      "▁r": 269,
      "▁sa": 270,
      "▁res": 271,
      "▁peur": 272,
      "li": 273,
      "▁etre": 274,
      "▁fatigue": 275,
      "▁content": 276,
      "▁lui": 277,
      "▁che": 278,
      "▁toutes": 279,
      "▁seu": 280,
      "ois": 281,
      "llement": 282,
      "ussi": 283,
      "▁heureux": 284,
      "▁son": 285,
      "▁comp": 286,
      "mi": 287,
      "▁votre": 288,
      "os": 289,
      "u@@": 290,
      "euse": 291,
      "▁fi": 292,
      "ait": 293,
      "aison": 294,
      "▁att": 295,
      "▁etu": 296,
      "nd": 297,
      "▁ex": 298,
      "▁occupe": 299,
      "▁on": 300,
      "▁ra": 301,
      "sez": 302,
      "▁faire": 303,
      "ale": 304,
      "▁parti": 305,
      "▁va": 306,
      "▁mai": 307,
      "o@@": 308,
      "ouv": 309,
      "ise": 310,
      "▁ho": 311,
      "▁ri": 312,
      "▁ret": 313,
      "▁aussi": 314,
      "▁assez": 315,
      "llons": 316,
      "▁fait": 317,
      "▁grand": 318,
      "al": 319,
      "c@@": 320,
      "oy": 321,
      "▁ser": 322,
      "ouve": 323,
      "▁mes": 324,
      "ter": 325,
      "▁jus": 326,
      "aire": 327,
      "ert": 328,
      "▁li": 329,
      "▁enf": 330,
      "▁tellement": 331,
      "▁desolee": 332,
      "▁peu": 333,
      "▁cour": 334,
      "▁fa": 335,
      "▁hab": 336,
      "ag": 337,
      "orm": 338,
      "vi": 339,
      "▁jeun": 340,
      "▁int": 341,
      "▁gen": 342,
      "▁mar": 343,
      "▁attend": 344,
      "▁juste": 345,
      "▁ton": 346,
      "▁alle": 347,
      "ants": 348,
      "▁avons": 349,
      "▁etudi": 350,
      "cou": 351,
      "ses": 352,
      "onn": 353,
      "▁deux": 354,
      "▁pres": 355,
      "▁dis": 356,
      "▁ment": 357,
      "▁man": 358,
      "▁fin": 359,
      "▁comme": 360,
      "mb": 361,
      "▁allons": 362,
      "enant": 363,
      "ntenant": 364,
      "▁voir": 365,
      "▁app": 366,
      "▁beau": 367,
      "▁maintenant": 368,
      "▁bonne": 369,
      "▁ami": 370,
      "uis": 371,
      "▁is": 372,
      "▁dem": 373,
      "▁parle": 374,
      "▁vieux": 375,
      "▁ter": 376,
      "aine": 377,
      "▁qui": 378,
      "ign": 379,
      "vre": 380,
      "ou@@": 381,
      "tement": 382,
      "tte": 383,
      "▁gent": 384,
      "ces": 385,
      "ique": 386,
      "▁nouve": 387,
      "▁fille": 388,
      "ente": 389,
      "▁rej": 390,
      "▁heureuse": 391,
      "▁jeune": 392,
      "m@@": 393,
      "▁cr": 394,
      "▁cert": 395,
      "▁quel": 396,
      "▁temp": 397,
      "▁rejou": 398,
      "▁er": 399,
      "▁cher": 400,
      "▁mal": 401,
      "iere": 402,
      "▁rejouis": 403,
      "ct": 404,
      "tre": 405,
      "iste": 406,
      "▁marie": 407,
      "▁homme": 408,
      "be": 409,
      "il": 410,
      "ye": 411,
      "▁sou": 412,
      "▁ja": 413,
      "▁inte": 414,
      "▁dev": 415,
      "eres": 416,
      "▁end": 417,
      "▁ense": 418,
      "ens": 419,
      "ance": 420,
      "▁reg": 421,
      "▁comm": 422,
      "iens": 423,
      "▁pret": 424,
      "▁ans": 425,
      "▁travaille": 426,
      "▁raison": 427,
      "▁chez": 428,
      "▁temps": 429,
      "▁vie": 430,
      "ains": 431,
      "▁fini": 432,
      "▁intell": 433,
      "ris": 434,
      "ence": 435,
      "▁seul": 436,
      "▁retard": 437,
      "▁age": 438,
      "▁mi": 439,
      "▁dep": 440,
      "▁for": 441,
      "▁faim": 442,
      "▁travail": 443,
      "▁intellig": 444,
      "ont": 445,
      "▁ses": 446,
      "▁ti": 447,
      "▁ad": 448,
      "rer": 449,
      "▁meme": 450,
      "▁prof": 451,
      "atis": 452,
      "ine": 453,
      "ose": 454,
      "sse": 455,
      "▁satis": 456,
      "▁jou": 457,
      "▁aid": 458,
      "▁ren": 459,
      "▁habit": 460,
      "ol": 461,
      "ver": 462,
      "▁ve": 463,
      "▁satisf": 464,
      "pon": 465,
      "▁gro": 466,
      "▁hui": 467,
      "▁apres": 468,
      "▁pers": 469,
      "▁aller": 470,
      "▁cela": 471,
      "▁impati": 472,
      "▁diff": 473,
      "uv": 474,
      "▁ant": 475,
      "lere": 476,
      "▁voi": 477,
      "▁idi": 478,
      "▁fe": 479,
      "ense": 480,
      "▁colere": 481,
      "▁enfant": 482,
      "age": 483,
      "ier": 484,
      "ut": 485,
      "▁eux": 486,
      "▁ab": 487,
      "▁ess": 488,
      "▁deran": 489,
      "▁amie": 490,
      "▁avez": 491,
      "coup": 492,
      "▁beaucoup": 493,
      "▁profes": 494,
      "▁habitue": 495,
      "ere": 496,
      "▁maison": 497,
      "▁cette": 498,
      "▁mauv": 499,
      "▁pere": 500,
      "ndre": 501,
      "bre": 502,
      "▁ec": 503,
      "oin": 504,
      "▁gar": 505,
      "▁aujour": 506,
      "▁ang": 507,
      "▁crains": 508,
      "▁aider": 509,
      "▁aujourd": 510,
      "man": 511,
      "pi": 512,
      "▁ele": 513,
      "▁tale": 514,
      "▁mort": 515,
      "uses": 516,
      "orte": 517,
      "antes": 518,
      "▁re@@": 519,
      "▁mala": 520,
      "▁ins": 521,
      "▁peti": 522,
      "▁interes": 523,
      "▁demain": 524,
      "▁mauvais": 525,
      "▁talent": 526,
      "as": 527,
      "if": 528,
      "mble": 529,
      "nes": 530,
      "▁aux": 531,
      "lement": 532,
      "▁ver": 533,
      "rite": 534,
      "▁conn": 535,
      "▁perd": 536,
      "▁gros": 537,
      "et": 538,
      "▁t@@": 539,
      "▁ven": 540,
      "▁fran": 541,
      "▁inc": 542,
      "▁inqu": 543,
      "curite": 544,
      "▁conf": 545,
      "ture": 546,
      "▁comple": 547,
      "▁fier": 548,
      "▁personne": 549,
      "mes": 550,
      "pons": 551,
      "▁eff": 552,
      "▁emb": 553,
      "▁aff": 554,
      "▁notre": 555,
      "▁rev": 556,
      "ressi": 557,
      "▁securite": 558,
      "▁grande": 559,
      "nds": 560,
      "▁partie": 561,
      "▁partir": 562,
      "▁presque": 563,
      "▁certain": 564,
      "lais": 565,
      "seur": 566,
      "▁or": 567,
      "▁ro": 568,
      "▁emp": 569,
      "▁ple": 570,
      "▁sor": 571,
      "ensi": 572,
      "cher": 573,
      "▁amis": 574,
      "mine": 575,
      "▁commence": 576,
      "▁femme": 577,
      "▁professeur": 578,
      "▁anglais": 579,
      "▁completement": 580,
      "are": 581,
      "uri": 582,
      "vain": 583,
      "▁v@@": 584,
      "▁ces": 585,
      "er@@": 586,
      "tion": 587,
      "▁chan": 588,
      "▁surp": 589,
      "▁respons": 590,
      "▁rien": 591,
      "▁quelque": 592,
      "▁intelligent": 593,
      "▁franc": 594,
      "ru": 595,
      "▁ons": 596,
      "▁ac": 597,
      "▁dan": 598,
      "▁fou": 599,
      "▁enn": 600,
      "▁meille": 601,
      "▁ont": 602,
      "▁aut": 603,
      "ablement": 604,
      "▁impressi": 605,
      "▁belle": 606,
      "▁occupee": 607,
      "▁court": 608,
      "▁attends": 609,
      "▁voiture": 610,
      "▁francais": 611,
      "ager": 612,
      "ion": 613,
      "▁sens": 614,
      "▁eur": 615,
      "▁ta": 616,
      "▁porte": 617,
      "▁non": 618,
      "▁cou": 619,
      "▁dej": 620,
      "▁der": 621,
      "euses": 622,
      "ches": 623,
      "▁dire": 624,
      "▁enseign": 625,
      "▁idiot": 626,
      "▁inquie": 627,
      "oc": 628,
      "ul": 629,
      "ure": 630,
      "▁r@@": 631,
      "▁sour": 632,
      "▁poi": 633,
      "▁ag": 634,
      "▁voy": 635,
      "▁sure": 636,
      "▁mour": 637,
      "ques": 638,
      "▁aime": 639,
      "ri@@": 640,
      "▁plut": 641,
      "cin": 642,
      "▁cherche": 643,
      "▁japon": 644,
      "▁satisfait": 645,
      "▁derange": 646,
      "▁plutot": 647,
      "die": 648,
      "ici": 649,
      "roi": 650,
      "tons": 651,
      "▁ee": 652,
      "▁tot": 653,
      "▁cre": 654,
      "▁cons": 655,
      "▁mais": 656,
      "▁desorm": 657,
      "▁chose": 658,
      "▁convain": 659,
      "▁contente": 660,
      "▁etudiant": 661,
      "▁disp": 662,
      "▁appre": 663,
      "▁nouveau": 664,
      "yez": 665,
      "▁malade": 666,
      "▁petit": 667,
      "▁meilleur": 668,
      "▁desormais": 669,
      "gn": 670,
      "gu": 671,
      "t@@": 672,
      "▁eg": 673,
      "▁viens": 674,
      "▁c@@": 675,
      "▁mo": 676,
      "▁en@@": 677,
      "oire": 678,
      "▁leur": 679,
      "▁cha": 680,
      "▁in@@": 681,
      "▁prob": 682,
      "▁prop": 683,
      "cont": 684,
      "▁atti": 685,
      "▁seule": 686,
      "▁mourir": 687,
      "con": 688,
      "s@@": 689,
      "▁u": 690,
      "▁s@@": 691,
      "▁ep": 692,
      "▁tort": 693,
      "▁po": 694,
      "▁d@@": 695,
      "▁cuis": 696,
      "▁mus": 697,
      "▁ete": 698,
      "▁fois": 699,
      "erv": 700,
      "▁soir": 701,
      "tique": 702,
      "▁aide": 703,
      "▁parf": 704,
      "▁faites": 705,
      "▁ob": 706,
      "▁contra": 707,
      "riere": 708,
      "▁marre": 709,
      "▁menteur": 710,
      "▁mieux": 711,
      "▁eleg": 712,
      "he": 713,
      "ls": 714,
      "teur": 715,
      "▁pouv": 716,
      "▁vont": 717,
      "▁curi": 718,
      "▁fre": 719,
      "quer": 720,
      "or@@": 721,
      "▁ain": 722,
      "▁toute": 723,
      "▁proble": 724,
      "ables": 725,
      "▁termine": 726,
      "▁impatient": 727,
      "▁interesse": 728,
      "rud": 729,
      "▁consci": 730,
      "um": 731,
      "▁sans": 732,
      "▁jour": 733,
      "▁ten": 734,
      "▁p@@": 735,
      "▁ar@@": 736,
      "ree": 737,
      "▁fiere": 738,
      "▁mede": 739,
      "ation": 740,
      "onnee": 741,
      "▁cond": 742,
      "▁vas": 743,
      "▁enfants": 744,
      "▁regard": 745,
      "▁rencont": 746,
      "▁danger": 747,
      "▁derriere": 748,
      "bi": 749,
      "ges": 750,
      "gent": 751,
      "ite": 752,
      "pp": 753,
      "▁our": 754,
      "▁ouv": 755,
      "▁din": 756,
      "ntes": 757,
      "▁mign": 758,
      "▁fo": 759,
      "nee": 760,
      "▁rep": 761,
      "roy": 762,
      "role": 763,
      "▁tele": 764,
      "▁prete": 765,
      "▁argent": 766,
      "▁fatiguee": 767,
      "▁chef": 768,
      "▁compre": 769,
      "mide": 770,
      "alement": 771,
      "▁libre": 772,
      "▁forme": 773,
      "▁incroy": 774,
      "▁japonais": 775,
      "▁contrarie": 776,
      "ic": 777,
      "▁ecou": 778,
      "▁ty": 779,
      "▁dit": 780,
      "▁ie": 781,
      "▁m@@": 782,
      "▁l@@": 783,
      "ene": 784,
      "mment": 785,
      "▁chant": 786,
      "arde": 787,
      "▁monde": 788,
      "▁entend": 789,
      "▁courag": 790,
      "▁genre": 791,
      "▁parler": 792,
      "▁gentille": 793,
      "▁gentil": 794,
      "ctue": 795,
      "▁mariee": 796,
      "▁souff": 797,
      "▁vieille": 798,
      "▁empl": 799,
      "▁medecin": 800,
      "ate": 801,
      "aux": 802,
      "lui": 803,
      "ves": 804,
      "▁ur": 805,
      "▁em": 806,
      "▁tes": 807,
      "▁tre": 808,
      "reux": 809,
      "▁et@@": 810,
      "▁etran": 811,
      "▁f@@": 812,
      "▁enne": 813,
      "▁b@@": 814,
      "▁bles": 815,
      "▁gag": 816,
      "▁cote": 817,
      "▁celui": 818,
      "▁ch@@": 819,
      "▁mari": 820,
      "▁part": 821,
      "▁inv": 822,
      "▁faisons": 823,
      "▁honte": 824,
      "▁manger": 825,
      "▁travailler": 826,
      "▁differe": 827,
      "▁garcon": 828,
      "pide": 829,
      "▁revoir": 830,
      "▁deja": 831,
      "ds": 832,
      "mais": 833,
      "ner": 834,
      "▁sau": 835,
      "▁e@@": 836,
      "▁ti@@": 837,
      "▁ph": 838,
      "▁peux": 839,
      "▁prud": 840,
      "▁norm": 841,
      "nts": 842,
      "▁cla": 843,
      "reur": 844,
      "aires": 845,
      "ourv": 846,
      "▁bi": 847,
      "tee": 848,
      "raint": 849,
      "▁simp": 850,
      "▁vite": 851,
      "▁etudie": 852,
      "▁riche": 853,
      "▁servi": 854,
      "▁faci": 855,
      "▁allez": 856,
      "▁certaine": 857,
      "▁jamais": 858,
      "▁depourv": 859,
      "▁confi": 860,
      "▁affaire": 861,
      "▁surpris": 862,
      "▁probablement": 863,
      "▁entendre": 864,
      "▁souffre": 865,
      "bat": 866,
      "bles": 867,
      "illes": 868,
      "jet": 869,
      "pable": 870,
      "ron": 871,
      "ttre": 872,
      "▁sy": 873,
      "▁jal": 874,
      "▁n@@": 875,
      "▁nager": 876,
      "▁cense": 877,
      "▁craint": 878,
      "▁mer": 879,
      "▁pat": 880,
      "▁de@@": 881,
      "▁bou": 882,
      "ors": 883,
      "titu": 884,
      "▁g@@": 885,
      "▁dess": 886,
      "▁her": 887,
      "▁celi": 888,
      "▁pro@@": 889,
      "▁dur": 890,
      "▁prep": 891,
      "▁fils": 892,
      "▁exp": 893,
      "▁maig": 894,
      "isee": 895,
      "▁marr": 896,
      "▁end@@": 897,
      "▁ensemble": 898,
      "▁seuls": 899,
      "▁ado": 900,
      "▁ord": 901,
      "▁moment": 902,
      "▁celibat": 903,
      "gen": 904,
      "min": 905,
      "mille": 906,
      "pes": 907,
      "ts": 908,
      "▁ou": 909,
      "oue": 910,
      "▁ere": 911,
      "▁suc": 912,
      "▁pati": 913,
      "▁fau": 914,
      "▁soif": 915,
      "▁trouv": 916,
      "▁reussi": 917,
      "▁deses": 918,
      "▁mere": 919,
      "▁cet": 920,
      "ch@@": 921,
      "▁invi": 922,
      "▁ass": 923,
      "▁astu": 924,
      "▁y@@": 925,
      "▁ravi": 926,
      "▁retour": 927,
      "▁famille": 928,
      "▁joue": 929,
      "▁institu": 930,
      "▁perdre": 931,
      "▁effra": 932,
      "▁plein": 933,
      "▁ennu": 934,
      "▁enseignant": 935,
      "▁obs": 936,
      "▁astuci": 937,
      "vie": 938,
      "▁ez": 939,
      "▁pris": 940,
      "iss": 941,
      "▁ais": 942,
      "▁ac@@": 943,
      "▁actue": 944,
      "▁nerv": 945,
      "▁pares": 946,
      "▁dec": 947,
      "▁bour": 948,
      "ances": 949,
      "▁somme": 950,
      "tin": 951,
      "rit": 952,
      "▁par@@": 953,
      "in@@": 954,
      "▁amou": 955,
      "uit": 956,
      "▁prendre": 957,
      "▁prends": 958,
      "▁nouvelle": 959,
      "▁erreur": 960,
      "▁jouer": 961,
      "▁essa": 962,
      "▁responsable": 963,
      "▁point": 964,
      "▁convaincu": 965,
      "▁attir": 966,
      "▁musique": 967,
      "▁frere": 968,
      "▁type": 969,
      "▁simplement": 970,
      "▁symp": 971,
      "▁actuellement": 972,
      "ace": 973,
      "des": 974,
      "dre": 975,
      "tra": 976,
      "uer": 977,
      "ven": 978,
      "yer": 979,
      "▁stu": 980,
      "▁tant": 981,
      "▁able": 982,
      "▁al@@": 983,
      "ler": 984,
      "▁vos": 985,
      "▁sujet": 986,
      "▁deg": 987,
      "▁froi": 988,
      "aie": 989,
      "qui": 990,
      "▁trouve": 991,
      "▁ble": 992,
      "▁bons": 993,
      "ande": 994,
      "▁quit": 995,
      "tie": 996,
      "▁aies": 997,
      "▁celle": 998,
      "▁av@@": 999,
      "▁plais": 1000,
      "chante": 1001,
      "▁amer": 1002,
      "▁ambi": 1003,
      "▁si@@": 1004,
      "cul": 1005,
      "▁pretes": 1006,
      "ffis": 1007,
      "▁con@@": 1008,
      "▁entrai": 1009,
      "▁per@@": 1010,
      "▁art": 1011,
      "▁arri": 1012,
      "▁lire": 1013,
      "onnes": 1014,
      "uiss": 1015,
      "▁regarde": 1016,
      "▁intelligente": 1017,
      "▁timide": 1018,
      "▁satisfai": 1019,
      "▁essaie": 1020,
      "▁talentu": 1021,
      "icile": 1022,
      "▁ainsi": 1023,
      "▁etranger": 1024,
      "▁invit": 1025,
      "▁classe": 1026,
      "▁dessus": 1027,
      "▁maigri": 1028,
      "▁succes": 1029,
      "cances": 1030,
      "f@@": 1031,
      "ieur": 1032,
      "nis": 1033,
      "oti": 1034,
      "uvre": 1035,
      "▁euse": 1036,
      "▁pie": 1037,
      "▁nom": 1038,
      "▁no@@": 1039,
      "▁vien": 1040,
      "▁ville": 1041,
      "▁can": 1042,
      "ret": 1043,
      "▁supp": 1044,
      "▁es@@": 1045,
      "▁mi@@": 1046,
      "▁pare": 1047,
      "▁pauvre": 1048,
      "▁deb": 1049,
      "▁lun": 1050,
      "▁loin": 1051,
      "▁soyez": 1052,
      "▁triste": 1053,
      "aiss": 1054,
      "▁ga": 1055,
      "▁ge": 1056,
      "▁gra": 1057,
      "▁gas": 1058,
      "▁rec": 1059,
      "▁pars": 1060,
      "iez": 1061,
      "oto": 1062,
      "▁inde": 1063,
      "▁ingen": 1064,
      "▁o@@": 1065,
      "▁off": 1066,
      "rasse": 1067,
      "cep": 1068,
      "uire": 1069,
      "▁as@@": 1070,
      "▁sem": 1071,
      "▁semb": 1072,
      "▁bienven": 1073,
      "▁impli": 1074,
      "▁occupes": 1075,
      "▁chemin": 1076,
      "▁ravie": 1077,
      "▁vacances": 1078,
      "▁ri@@": 1079,
      "▁etudiants": 1080,
      "▁manquer": 1081,
      "▁devoir": 1082,
      "▁ador": 1083,
      "▁difficile": 1084,
      "▁venir": 1085,
      "▁embar": 1086,
      "▁impressionne": 1087,
      "▁inquiete": 1088,
      "▁parfai": 1089,
      "▁tennis": 1090,
      "▁regarder": 1091,
      "▁rencontrer": 1092,
      "▁emoti": 1093,
      "▁celibataire": 1094,
      "▁sommeil": 1095,
      "▁froid": 1096,
      "cs": 1097,
      "du": 1098,
      "dans": 1099,
      "eun": 1100,
      "hensi": 1101,
      "ible": 1102,
      "ieux": 1103,
      "iver": 1104,
      "tri": 1105,
      "▁oi": 1106,
      "▁use": 1107,
      "▁sous": 1108,
      "ouille": 1109,
      "▁el": 1110,
      "▁ement": 1111,
      "▁equi": 1112,
      "▁j@@": 1113,
      "▁pen": 1114,
      "▁pi@@": 1115,
      "▁pos": 1116,
      "▁ache": 1117,
      "▁ante": 1118,
      "▁ayez": 1119,
      "▁drole": 1120,
      "▁cri": 1121,
      "▁suffis": 1122,
      "▁esp": 1123,
      "▁mont": 1124,
      "▁dedans": 1125,
      "▁qu@@": 1126,
      "▁air": 1127,
      "▁ait": 1128,
      "▁aine": 1129,
      "▁chau": 1130,
      "▁matin": 1131,
      "cie": 1132,
      "▁tete": 1133,
      "site": 1134,
      "▁am@@": 1135,
      "▁amus": 1136,
      "ats": 1137,
      "▁an@@": 1138,
      "▁viv": 1139,
      "▁bonnes": 1140,
      "lite": 1141,
      "▁seules": 1142,
      "▁compte": 1143,
      "oses": 1144,
      "oyen": 1145,
      "▁jeunes": 1146,
      "▁menteuse": 1147,
      "▁demande": 1148,
      "▁abs": 1149,
      "▁grossi": 1150,
      "▁chanc": 1151,
      "▁acc": 1152,
      "▁autor": 1153,
      "▁ag@@": 1154,
      "gues": 1155,
      "▁egalement": 1156,
      "▁probleme": 1157,
      "▁our@@": 1158,
      "▁comprehensi": 1159,
      "▁blesse": 1160,
      "▁service": 1161,
      "▁adore": 1162,
      "▁desespe": 1163,
      "▁paress": 1164,
      "▁amoureux": 1165,
      "▁artiste": 1166,
      "▁semaine": 1167,
      "▁adorable": 1168,
      "▁parfaitement": 1169,
      "▁equipe": 1170,
      "aque": 1171,
      "fs": 1172,
      "ieuse": 1173,
      "noc": 1174,
      "ote": 1175,
      "ph": 1176,
      "▁souv": 1177,
      "oux": 1178,
      "▁pi": 1179,
      "▁port": 1180,
      "▁pense": 1181,
      "▁a@@": 1182,
      "▁nai": 1183,
      "▁nuit": 1184,
      "▁cin": 1185,
      "▁car": 1186,
      "▁i@@": 1187,
      "▁ine": 1188,
      "▁ivre": 1189,
      "▁lit": 1190,
      "▁sois": 1191,
      "▁univer": 1192,
      "▁tr@@": 1193,
      "enir": 1194,
      "▁boire": 1195,
      "orri": 1196,
      "▁lettre": 1197,
      "▁com@@": 1198,
      "▁char": 1199,
      "▁plai": 1200,
      "▁innoc": 1201,
      "▁amour": 1202,
      "▁proch": 1203,
      "▁trois": 1204,
      "▁conc": 1205,
      "▁contre": 1206,
      "▁capable": 1207,
      "▁ap@@": 1208,
      "▁appe": 1209,
      "igne": 1210,
      "▁dix": 1211,
      "▁saou": 1212,
      "▁ress": 1213,
      "oye": 1214,
      "▁livre": 1215,
      "onner": 1216,
      "▁terri": 1217,
      "cteur": 1218,
      "▁midi": 1219,
      "▁for@@": 1220,
      "▁rende": 1221,
      "▁ab@@": 1222,
      "▁habituee": 1223,
      "▁robe": 1224,
      "ensible": 1225,
      "▁inquiet": 1226,
      "▁voyage": 1227,
      "roit": 1228,
      "▁cuisin": 1229,
      "▁pouvons": 1230,
      "▁problemes": 1231,
      "▁jours": 1232,
      "▁conduire": 1233,
      "▁incroyablement": 1234,
      "▁confiance": 1235,
      "▁instituteur": 1236,
      "▁effraye": 1237,
      "▁sympa": 1238,
      "▁reconn": 1239,
      "▁souvent": 1240,
      "▁universite": 1241,
      "ac": 1242,
      "arer": 1243,
      "men": 1244,
      "n@@": 1245,
      "oque": 1246,
      "per": 1247,
      "tant": 1248,
      "ume": 1249,
      "▁ise": 1250,
      "esoin": 1251,
      "▁sai": 1252,
      "▁scep": 1253,
      "oute": 1254,
      "▁eau": 1255,
      "▁el@@": 1256,
      "▁tour": 1257,
      "▁to@@": 1258,
      "▁pon": 1259,
      "▁puiss": 1260,
      "▁aise": 1261,
      "▁dou@@": 1262,
      "▁nat": 1263,
      "lex": 1264,
      "▁vis": 1265,
      "▁ign": 1266,
      "▁it@@": 1267,
      "▁min": 1268,
      "▁decu": 1269,
      "▁enchante": 1270,
      "▁sor@@": 1271,
      "▁bat": 1272,
      "▁besoin": 1273,
      "ti@@": 1274,
      "▁ches": 1275,
      "▁chance": 1276,
      "ins": 1277,
      "▁au@@": 1278,
      "▁pre@@": 1279,
      "▁semble": 1280,
      "▁vivre": 1281,
      "▁yeux": 1282,
      "▁ents": 1283,
      "▁travaillons": 1284,
      "▁exc": 1285,
      "▁fas": 1286,
      "▁habille": 1287,
      "onnier": 1288,
      "▁is@@": 1289,
      "▁souci": 1290,
      "▁dev@@": 1291,
      "▁endorm": 1292,
      "▁impatiente": 1293,
      "▁ecole": 1294,
      "▁roman": 1295,
      "▁apprends": 1296,
      "▁egois": 1297,
      "▁conscient": 1298,
      "▁ouvert": 1299,
      "▁mignon": 1300,
      "▁photo": 1301,
      "▁prudent": 1302,
      "▁invite": 1303,
      "▁maigrich": 1304,
      "▁embarrasse": 1305,
      "ad": 1306,
      "amment": 1307,
      "bli": 1308,
      "cte": 1309,
      "gne": 1310,
      "int": 1311,
      "ivre": 1312,
      "lie": 1313,
      "▁k": 1314,
      "▁rai": 1315,
      "▁ou@@": 1316,
      "▁sante": 1317,
      "▁sensible": 1318,
      "▁ees": 1319,
      "▁er@@": 1320,
      "▁eu@@": 1321,
      "▁em@@": 1322,
      "▁euses": 1323,
      "▁pr@@": 1324,
      "▁pois": 1325,
      "▁al": 1326,
      "▁donne": 1327,
      "▁di@@": 1328,
      "▁vi@@": 1329,
      "▁vend": 1330,
      "▁coin": 1331,
      "▁su@@": 1332,
      "▁ic@@": 1333,
      "▁mo@@": 1334,
      "▁eng": 1335,
      "▁env": 1336,
      "mmes": 1337,
      "▁bl": 1338,
      "▁ban": 1339,
      "▁bar": 1340,
      "and": 1341,
      "▁ai@@": 1342,
      "▁rel": 1343,
      "▁rem": 1344,
      "▁honne": 1345,
      "▁hum": 1346,
      "▁hors": 1347,
      "▁choses": 1348,
      "▁mat": 1349,
      "▁mal@@": 1350,
      "▁plante": 1351,
      "chent": 1352,
      "eurs": 1353,
      "▁op": 1354,
      "rait": 1355,
      "ienne": 1356,
      "chee": 1357,
      "▁and": 1358,
      "endant": 1359,
      "▁arro": 1360,
      "▁sage": 1361,
      "▁seulement": 1362,
      "aitre": 1363,
      "▁lib": 1364,
      "▁inter": 1365,
      "mbre": 1366,
      "▁app@@": 1367,
      "▁appare": 1368,
      "▁amies": 1369,
      "▁quelques": 1370,
      "▁comm@@": 1371,
      "▁antes": 1372,
      "▁ecri": 1373,
      "▁mauvaise": 1374,
      "▁vers": 1375,
      "▁connu": 1376,
      "▁perdu": 1377,
      "▁eurs": 1378,
      "▁dejeun": 1379,
      "▁convainc": 1380,
      "▁propos": 1381,
      "▁elegante": 1382,
      "▁pouvoir": 1383,
      "▁curieux": 1384,
      "▁curieuse": 1385,
      "▁contrariee": 1386,
      "▁courageux": 1387,
      "▁employe": 1388,
      "▁depourvu": 1389,
      "▁jalous": 1390,
      "▁bourre": 1391,
      "▁plaisante": 1392,
      "▁entraine": 1393,
      "▁offense": 1394,
      "▁implique": 1395,
      "▁oi@@": 1396,
      "▁cinq": 1397,
      "▁ignor": 1398,
      "▁honnete": 1399,
      "cun": 1400,
      "ma": 1401,
      "mene": 1402,
      "og": 1403,
      "obe": 1404,
      "rise": 1405,
      "ton": 1406,
      "ures": 1407,
      "▁z": 1408,
      "▁onne": 1409,
      "▁sp": 1410,
      "▁spe": 1411,
      "▁pra": 1412,
      "▁pri@@": 1413,
      "▁ds": 1414,
      "▁dou": 1415,
      "▁doyen": 1416,
      "leman": 1417,
      "▁vol": 1418,
      "▁sures": 1419,
      "▁ir": 1420,
      "▁it": 1421,
      "▁ite": 1422,
      "▁ide": 1423,
      "▁pa@@": 1424,
      "▁etait": 1425,
      "▁fum": 1426,
      "▁lan": 1427,
      "eures": 1428,
      "ources": 1429,
      "▁bra": 1430,
      "▁bate": 1431,
      "ord": 1432,
      "▁aire": 1433,
      "▁ref": 1434,
      "▁rend": 1435,
      "▁quelle": 1436,
      "rime": 1437,
      "▁mec": 1438,
      "▁chante": 1439,
      "▁avance": 1440,
      "ronte": 1441,
      "cien": 1442,
      "chons": 1443,
      "▁indi": 1444,
      "▁aup": 1445,
      "▁aucun": 1446,
      "vez": 1447,
      "veille": 1448,
      "▁dure": 1449,
      "mement": 1450,
      "ateur": 1451,
      "avant": 1452,
      "▁danser": 1453,
      "▁bebe": 1454,
      "▁diman": 1455,
      "▁arre": 1456,
      "▁resul": 1457,
      "eusement": 1458,
      "▁attent": 1459,
      "▁extre": 1460,
      "▁raff": 1461,
      "▁ser@@": 1462,
      "▁fami": 1463,
      "▁geni": 1464,
      "▁marcher": 1465,
      "▁attendre": 1466,
      "▁etudi@@": 1467,
      "▁discu": 1468,
      "▁gentleman": 1469,
      "▁prets": 1470,
      "olie": 1471,
      "▁diffi": 1472,
      "▁idiote": 1473,
      "▁instant": 1474,
      "▁petite": 1475,
      "▁interess": 1476,
      "▁or@@": 1477,
      "▁pleine": 1478,
      "▁sorte": 1479,
      "▁chan@@": 1480,
      "▁responsables": 1481,
      "▁impressionnee": 1482,
      "▁coup": 1483,
      "▁creati": 1484,
      "▁creve": 1485,
      "▁propre": 1486,
      "▁epu": 1487,
      "▁mignonne": 1488,
      "▁folle": 1489,
      "▁ecouter": 1490,
      "▁gagner": 1491,
      "▁normal": 1492,
      "▁facilement": 1493,
      "▁patron": 1494,
      "▁prepare": 1495,
      "▁trouver": 1496,
      "▁observ": 1497,
      "▁americ": 1498,
      "▁suppose": 1499,
      "▁grossier": 1500,
      "▁ressources": 1501,
      "▁egoiste": 1502,
      "▁speci": 1503,
      "▁bateau": 1504,
      "▁dimanche": 1505,
      "▁result": 1506,
      "▁extremement": 1507,
      "ari": 1508,
      "ez": 1509,
      "g@@": 1510,
      "gres": 1511,
      "ile": 1512,
      "ill": 1513,
      "ime": 1514,
      "nier": 1515,
      "ok": 1516,
      "ol@@": 1517,
      "ser": 1518,
      "siere": 1519,
      "tt": 1520,
      "vis": 1521,
      "yons": 1522,
      "▁sent": 1523,
      "out": 1524,
      "oupe": 1525,
      "▁ev": 1526,
      "▁eche": 1527,
      "▁ente": 1528,
      "▁jolie": 1529,
      "▁tati": 1530,
      "▁tard": 1531,
      "▁pensi": 1532,
      "ist": 1533,
      "istes": 1534,
      "▁aus": 1535,
      "▁all": 1536,
      "▁do": 1537,
      "▁dro": 1538,
      "▁dra": 1539,
      "▁nu": 1540,
      "▁not": 1541,
      "▁veux": 1542,
      "▁vole": 1543,
      "▁vois": 1544,
      "▁cer": 1545,
      "▁cor": 1546,
      "▁ci@@": 1547,
      "▁im@@": 1548,
      "one": 1549,
      "▁fous": 1550,
      "▁fer": 1551,
      "▁ff@@": 1552,
      "▁ence": 1553,
      "▁sol": 1554,
      "▁soit": 1555,
      "ents": 1556,
      "eug": 1557,
      "eule": 1558,
      "▁bre": 1559,
      "▁bi@@": 1560,
      "▁bla": 1561,
      "▁bos": 1562,
      "▁bou@@": 1563,
      "aisse": 1564,
      "▁rec@@": 1565,
      "▁recher": 1566,
      "rice": 1567,
      "rige": 1568,
      "▁hu": 1569,
      "▁hau": 1570,
      "▁mech": 1571,
      "▁medi": 1572,
      "▁chi": 1573,
      "▁chiens": 1574,
      "▁choue": 1575,
      "▁avoc": 1576,
      "▁aveug": 1577,
      "resse": 1578,
      "▁plan": 1579,
      "▁paran": 1580,
      "ines": 1581,
      "inion": 1582,
      "sible": 1583,
      "▁inf": 1584,
      "▁ol@@": 1585,
      "iller": 1586,
      "atiques": 1587,
      "▁ass@@": 1588,
      "▁prote": 1589,
      "▁surs": 1590,
      "▁tromp": 1591,
      "▁heureuses": 1592,
      "▁vire": 1593,
      "▁import": 1594,
      "▁entre": 1595,
      "▁ent@@": 1596,
      "▁div": 1597,
      "▁dirige": 1598,
      "▁pe@@": 1599,
      "▁peint": 1600,
      "▁res@@": 1601,
      "▁fiable": 1602,
      "▁ex@@": 1603,
      "▁extra": 1604,
      "▁rapide": 1605,
      "▁riches": 1606,
      "▁ret@@": 1607,
      "▁grands": 1608,
      "▁grandes": 1609,
      "oyer": 1610,
      "▁mary": 1611,
      "▁manque": 1612,
      "▁appro": 1613,
      "▁iste": 1614,
      "▁quelqu": 1615,
      "▁chercher": 1616,
      "ierement": 1617,
      "▁agee": 1618,
      "▁joueur": 1619,
      "olu": 1620,
      "▁ants": 1621,
      "▁professi": 1622,
      "▁gars": 1623,
      "▁grossiere": 1624,
      "▁venue": 1625,
      "▁sortons": 1626,
      "▁souri": 1627,
      "▁poids": 1628,
      "▁voyager": 1629,
      "▁dispu": 1630,
      "▁dispose": 1631,
      "▁poli": 1632,
      "▁musici": 1633,
      "▁freres": 1634,
      "▁rencontre": 1635,
      "enetre": 1636,
      "▁chanteuse": 1637,
      "▁maries": 1638,
      "▁jaloux": 1639,
      "▁ordin": 1640,
      "▁reussir": 1641,
      "▁ennuie": 1642,
      "▁astucieux": 1643,
      "▁nerveux": 1644,
      "▁attirante": 1645,
      "▁stupide": 1646,
      "▁satisfaite": 1647,
      "▁talentueux": 1648,
      "▁invit@@": 1649,
      "▁pieds": 1650,
      "▁parents": 1651,
      "▁gras": 1652,
      "▁montre": 1653,
      "▁desespere": 1654,
      "▁paresseux": 1655,
      "▁excuses": 1656,
      "▁fascin": 1657,
      "▁humeur": 1658,
      "▁opinion": 1659,
      "▁pratique": 1660,
      "▁fumer": 1661,
      "▁raffine": 1662,
      "▁discuter": 1663,
      "▁difficul": 1664,
      "▁resultat": 1665,
      "▁boston": 1666,
      "▁chouette": 1667,
      "▁avocat": 1668,
      "ade": 1669,
      "cre": 1670,
      "cer": 1671,
      "cti": 1672,
      "ction": 1673,
      "dra": 1674,
      "ete": 1675,
      "gu@@": 1676,
      "gique": 1677,
      "mer": 1678,
      "ns": 1679,
      "nent": 1680,
      "occu": 1681,
      "ttes": 1682,
      "▁us": 1683,
      "▁ue": 1684,
      "▁st": 1685,
      "▁sait": 1686,
      "▁sou@@": 1687,
      "▁st@@": 1688,
      "▁ec@@": 1689,
      "▁jou@@": 1690,
      "▁tique": 1691,
      "▁pri": 1692,
      "▁po@@": 1693,
      "▁puer": 1694,
      "ises": 1695,
      "▁ation": 1696,
      "▁ati@@": 1697,
      "▁nos": 1698,
      "lech": 1699,
      "leve": 1700,
      "▁cl": 1701,
      "▁cous": 1702,
      "▁sus": 1703,
      "▁super": 1704,
      "▁ier": 1705,
      "▁paye": 1706,
      "▁def": 1707,
      "▁il@@": 1708,
      "▁passe": 1709,
      "▁ets": 1710,
      "▁fr": 1711,
      "▁fri": 1712,
      "▁fi@@": 1713,
      "▁fl@@": 1714,
      "▁fu@@": 1715,
      "▁lis": 1716,
      "▁li@@": 1717,
      "▁ens": 1718,
      "▁soci": 1719,
      "entot": 1720,
      "quin": 1721,
      "▁unique": 1722,
      "▁tri": 1723,
      "▁nett": 1724,
      "enses": 1725,
      "oie": 1726,
      "▁bran": 1727,
      "▁bure": 1728,
      "uss": 1729,
      "tir": 1730,
      "tieux": 1731,
      "neant": 1732,
      "ments": 1733,
      "▁gare": 1734,
      "▁ree": 1735,
      "▁repon": 1736,
      "▁rends": 1737,
      "▁desh": 1738,
      "▁desi": 1739,
      "▁hier": 1740,
      "▁heures": 1741,
      "▁cop": 1742,
      "▁me@@": 1743,
      "▁ceci": 1744,
      "▁chats": 1745,
      "▁choque": 1746,
      "▁ma@@": 1747,
      "▁mar@@": 1748,
      "rontes": 1749,
      "cier": 1750,
      "cieux": 1751,
      "▁pard": 1752,
      "demment": 1753,
      "ots": 1754,
      "aravant": 1755,
      "▁om@@": 1756,
      "iennes": 1757,
      "▁situ": 1758,
      "▁moins": 1759,
      "peau": 1760,
      "▁preoccu": 1761,
      "▁surmene": 1762,
      "▁se@@": 1763,
      "itaire": 1764,
      "▁ange": 1765,
      "▁fatigu@@": 1766,
      "▁arme": 1767,
      "▁ruse": 1768,
      "▁reste": 1769,
      "▁respe": 1770,
      "▁contents": 1771,
      "▁exa": 1772,
      "▁occupees": 1773,
      "▁serieux": 1774,
      "▁courses": 1775,
      "▁inti": 1776,
      "▁gens": 1777,
      "▁genere": 1778,
      "▁gener@@": 1779,
      "▁attendent": 1780,
      "▁etudier": 1781,
      "▁etudiante": 1782,
      "▁beaute": 1783,
      "▁nouvelles": 1784,
      "▁crue": 1785,
      "▁cherchent": 1786,
      "▁maligne": 1787,
      "▁deviens": 1788,
      "▁devenir": 1789,
      "▁endur": 1790,
      "▁commen": 1791,
      "▁vieilles": 1792,
      "▁mill": 1793,
      "▁deprime": 1794,
      "▁forte": 1795,
      "▁tire": 1796,
      "vers": 1797,
      "verti": 1798,
      "▁vein": 1799,
      "ponible": 1800,
      "▁allergique": 1801,
      "▁ant@@": 1802,
      "▁deranger": 1803,
      "▁gar@@": 1804,
      "▁morts": 1805,
      "▁mortes": 1806,
      "▁talentu@@": 1807,
      "ifique": 1808,
      "▁verite": 1809,
      "▁connue": 1810,
      "▁connaiss": 1811,
      "▁embet": 1812,
      "▁affaires": 1813,
      "▁surprise": 1814,
      "▁ennuis": 1815,
      "▁satisfaits": 1816,
      "▁derangee": 1817,
      "▁apprecie": 1818,
      "▁chapeau": 1819,
      "▁probable": 1820,
      "▁parfois": 1821,
      "▁elegant": 1822,
      "pport": 1823,
      "▁dingue": 1824,
      "▁foot": 1825,
      "▁teleph": 1826,
      "▁televis": 1827,
      "▁comprendre": 1828,
      "▁japonaise": 1829,
      "▁courageuse": 1830,
      "▁ennemi": 1831,
      "▁differents": 1832,
      "▁bientot": 1833,
      "▁facile": 1834,
      "▁censee": 1835,
      "▁crainti": 1836,
      "▁preparer": 1837,
      "▁marrant": 1838,
      "▁marrante": 1839,
      "▁fau@@": 1840,
      "▁invitee": 1841,
      "▁assis": 1842,
      "▁prisonnier": 1843,
      "▁decue": 1844,
      "▁essayer": 1845,
      "▁ambition": 1846,
      "▁talentueuse": 1847,
      "▁invites": 1848,
      "▁debut": 1849,
      "▁indep": 1850,
      "▁sembla": 1851,
      "▁bienvenu": 1852,
      "▁devoirs": 1853,
      "▁acheter": 1854,
      "▁esprit": 1855,
      "▁autorise": 1856,
      "▁charm": 1857,
      "▁prochaine": 1858,
      "▁saoul": 1859,
      "▁terrible": 1860,
      "▁saint": 1861,
      "▁nature": 1862,
      "▁rai@@": 1863,
      "▁arrog": 1864,
      "▁libres": 1865,
      "▁dejeuner": 1866,
      "▁convaincue": 1867,
      "▁brave": 1868,
      "▁reflech": 1869,
      "▁auparavant": 1870,
      "▁attention": 1871,
      "▁tatill": 1872,
      "▁austra": 1873,
      "▁nulle": 1874,
      "▁notres": 1875,
      "▁recherche": 1876,
      "▁aveugle": 1877,
      "▁dirigeons": 1878,
      "▁bureau": 1879,
      "▁preoccupe": 1880,
      "▁telephone": 1881,
      "▁television": 1882,
      "all": 1883,
      "blie": 1884,
      "cle": 1885,
      "cen": 1886,
      "duis": 1887,
      "ions": 1888,
      "ionn": 1889,
      "ju": 1890,
      "mie": 1891,
      "nois": 1892,
      "op": 1893,
      "oli": 1894,
      "pit": 1895,
      "phe": 1896,
      "plex": 1897,
      "pents": 1898,
      "ru@@": 1899,
      "ten": 1900,
      "tation": 1901,
      "ude": 1902,
      "uve": 1903,
      "yo": 1904,
      "y@@": 1905,
      "▁sk": 1906,
      "▁sin": 1907,
      "▁ech": 1908,
      "▁joy": 1909,
      "▁jume": 1910,
      "▁tons": 1911,
      "▁teur": 1912,
      "▁tok": 1913,
      "▁pu": 1914,
      "▁ale": 1915,
      "▁dorm": 1916,
      "▁droit": 1917,
      "▁nouv": 1918,
      "lettes": 1919,
      "▁ves": 1920,
      "▁vit": 1921,
      "▁vo@@": 1922,
      "▁cit": 1923,
      "▁cr@@": 1924,
      "▁crie": 1925,
      "▁cou@@": 1926,
      "reuse": 1927,
      "▁sub": 1928,
      "▁sug": 1929,
      "▁suivre": 1930,
      "▁ies": 1931,
      "▁mens": 1932,
      "▁mots": 1933,
      "▁pay": 1934,
      "▁dece": 1935,
      "▁devez": 1936,
      "▁ill@@": 1937,
      "▁pas@@": 1938,
      "▁fon": 1939,
      "▁fli": 1940,
      "▁font": 1941,
      "▁fer@@": 1942,
      "▁laisse": 1943,
      "▁ennes": 1944,
      "▁envers": 1945,
      "▁tran": 1946,
      "en@@": 1947,
      "oiaque": 1948,
      "▁br@@": 1949,
      "▁bav": 1950,
      "▁bru@@": 1951,
      "▁ques": 1952,
      "aise": 1953,
      "tiens": 1954,
      "▁aires": 1955,
      "nequin": 1956,
      "▁ger": 1957,
      "▁gi@@": 1958,
      "▁gr@@": 1959,
      "▁go@@": 1960,
      "▁guer": 1961,
      "▁gobe": 1962,
      "▁rent": 1963,
      "▁reme": 1964,
      "▁rendre": 1965,
      "▁des@@": 1966,
      "▁hur": 1967,
      "▁horri": 1968,
      "▁hist": 1969,
      "▁memes": 1970,
      "▁chans": 1971,
      "▁avait": 1972,
      "▁avise": 1973,
      "▁avisee": 1974,
      "▁mag": 1975,
      "▁mas": 1976,
      "▁pl@@": 1977,
      "cine": 1978,
      "▁tel": 1979,
      "▁partons": 1980,
      "othe": 1981,
      "▁faibles": 1982,
      "cee": 1983,
      "vee": 1984,
      "▁proches": 1985,
      "▁proch@@": 1986,
      "▁progres": 1987,
      "▁du@@": 1988,
      "▁preju": 1989,
      "▁sec": 1990,
      "▁conge": 1991,
      "itable": 1992,
      "▁vraie": 1993,
      "chez": 1994,
      "▁ance": 1995,
      "▁vient": 1996,
      "▁at@@": 1997,
      "iron": 1998,
      "▁impos": 1999,
      "▁imprud": 2000,
      "▁entir": 2001,
      "▁entierement": 2002,
      "▁gran@@": 2003,
      "▁tombe": 2004,
      "▁perplex": 2005,
      "▁arbre": 2006,
      "▁rou": 2007,
      "▁salle": 2008,
      "▁sacre": 2009,
      "lic": 2010,
      "lier": 2011,
      "▁fatiguees": 2012,
      "▁fiance": 2013,
      "▁exci": 2014,
      "▁exc@@": 2015,
      "▁onner": 2016,
      "▁serpents": 2017,
      "▁habile": 2018,
      "agn": 2019,
      "vient": 2020,
      "▁dis@@": 2021,
      "▁disponible": 2022,
      "▁mentir": 2023,
      "▁mange": 2024,
      "▁mannequin": 2025,
      "▁fin@@": 2026,
      "▁appar": 2027,
      "▁ter@@": 2028,
      "▁croire": 2029,
      "▁malin": 2030,
      "▁soud": 2031,
      "▁souleve": 2032,
      "▁regime": 2033,
      "▁travailleur": 2034,
      "▁depend": 2035,
      "▁adul": 2036,
      "▁ve@@": 2037,
      "▁vetement": 2038,
      "▁huit": 2039,
      "▁ables": 2040,
      "▁ecrit": 2041,
      "pilles": 2042,
      "▁eleves": 2043,
      "▁veritable": 2044,
      "▁incorri": 2045,
      "▁inqui@@": 2046,
      "▁effronte": 2047,
      "▁romp": 2048,
      "▁sortir": 2049,
      "▁chanc@@": 2050,
      "▁autres": 2051,
      "▁coupable": 2052,
      "▁enseignante": 2053,
      "▁idiots": 2054,
      "ulaire": 2055,
      "▁sour@@": 2056,
      "▁souri@@": 2057,
      "▁sournois": 2058,
      "▁voy@@": 2059,
      "▁apprendre": 2060,
      "guer": 2061,
      "▁champ": 2062,
      "▁chauss": 2063,
      "▁cuisine": 2064,
      "▁parfait": 2065,
      "hem": 2066,
      "▁din@@": 2067,
      "▁diner": 2068,
      "▁dingues": 2069,
      "▁formee": 2070,
      "▁incroyable": 2071,
      "▁ecoute": 2072,
      "▁etrange": 2073,
      "▁gag@@": 2074,
      "▁gagne": 2075,
      "▁marier": 2076,
      "▁parten": 2077,
      "▁differente": 2078,
      "▁differentes": 2079,
      "▁prudente": 2080,
      "▁normale": 2081,
      "▁bibli": 2082,
      "▁certainement": 2083,
      "▁craintif": 2084,
      "▁merci": 2085,
      "▁boul": 2086,
      "▁heroi": 2087,
      "▁heros": 2088,
      "▁oublie": 2089,
      "▁patient": 2090,
      "▁faut": 2091,
      "▁trouvent": 2092,
      "▁retourne": 2093,
      "▁institutri": 2094,
      "▁astucieuse": 2095,
      "issons": 2096,
      "▁aiss@@": 2097,
      "▁erreurs": 2098,
      "▁essaye": 2099,
      "▁attirant": 2100,
      "▁quitter": 2101,
      "▁entrainee": 2102,
      "▁satisfaites": 2103,
      "▁nombre": 2104,
      "▁viennent": 2105,
      "▁canad": 2106,
      "▁ge@@": 2107,
      "▁grave": 2108,
      "▁gaspilles": 2109,
      "▁indelic": 2110,
      "▁elu": 2111,
      "▁pen@@": 2112,
      "▁critique": 2113,
      "▁absolu": 2114,
      "▁chanceux": 2115,
      "▁accro": 2116,
      "▁accord": 2117,
      "▁desesperee": 2118,
      "▁plaintes": 2119,
      "▁prochain": 2120,
      "▁appeler": 2121,
      "▁terrif": 2122,
      "▁cuisinier": 2123,
      "▁sceptique": 2124,
      "▁pon@@": 2125,
      "▁ponctue": 2126,
      "▁bat@@": 2127,
      "▁habillee": 2128,
      "▁endorm@@": 2129,
      "▁invitees": 2130,
      "▁poiss": 2131,
      "▁engage": 2132,
      "▁environ": 2133,
      "▁relig": 2134,
      "▁mathem": 2135,
      "▁and@@": 2136,
      "▁interieur": 2137,
      "▁idees": 2138,
      "▁langues": 2139,
      "▁arreter": 2140,
      "▁epuisee": 2141,
      "▁americain": 2142,
      "▁echecs": 2143,
      "▁docteur": 2144,
      "▁solitaire": 2145,
      "▁mechant": 2146,
      "▁paranoiaque": 2147,
      "▁proteger": 2148,
      "▁peintre": 2149,
      "▁professionne": 2150,
      "▁disputer": 2151,
      "▁police": 2152,
      "▁ordinaire": 2153,
      "▁copine": 2154,
      "▁intimide": 2155,
      "▁millionn": 2156,
      "▁veinard": 2157,
      "▁connaissance": 2158,
      "▁independant": 2159,
      "▁semblables": 2160,
      "▁austral": 2161,
      "▁tokyo": 2162,
      "▁nouv@@": 2163,
      "▁guerre": 2164,
      "▁horrible": 2165,
      "▁chanson": 2166,
      "otheque": 2167,
      "▁prejuges": 2168,
      "▁impossible": 2169,
      "▁incorrig": 2170,
      "▁chaussures": 2171,
      "▁bibliotheque": 2172,
      "▁institutrice": 2173,
      "▁absolument": 2174,
      "▁millionnaire": 2175,
      "alle": 2176,
      "asi": 2177,
      "act": 2178,
      "ca": 2179,
      "cons": 2180,
      "dis": 2181,
      "ho": 2182,
      "hors": 2183,
      "ix": 2184,
      "ies": 2185,
      "ionne": 2186,
      "ieres": 2187,
      "ieuses": 2188,
      "ibles": 2189,
      "lo": 2190,
      "lu": 2191,
      "miere": 2192,
      "nons": 2193,
      "nal": 2194,
      "onte": 2195,
      "ppe": 2196,
      "roupe": 2197,
      "sons": 2198,
      "tue": 2199,
      "zes": 2200,
      "▁w": 2201,
      "▁x": 2202,
      "▁sais": 2203,
      "▁th": 2204,
      "▁peure": 2205,
      "▁pu@@": 2206,
      "▁por@@": 2207,
      "▁penetre": 2208,
      "iser": 2209,
      "▁dort": 2210,
      "▁dois": 2211,
      "▁donner": 2212,
      "▁ner": 2213,
      "▁nour": 2214,
      "▁nag": 2215,
      "len": 2216,
      "▁vu": 2217,
      "▁van": 2218,
      "▁cu": 2219,
      "▁cle": 2220,
      "▁cles": 2221,
      "▁cu@@": 2222,
      "▁cine": 2223,
      "rez": 2224,
      "▁men": 2225,
      "▁mons": 2226,
      "▁mois": 2227,
      "▁morte": 2228,
      "▁mer@@": 2229,
      "▁meurs": 2230,
      "▁miennes": 2231,
      "▁parole": 2232,
      "onge": 2233,
      "onzes": 2234,
      "▁dent": 2235,
      "▁deco": 2236,
      "▁dec@@": 2237,
      "▁dents": 2238,
      "▁dehors": 2239,
      "▁iller": 2240,
      "▁etour": 2241,
      "▁etonne": 2242,
      "▁etr@@": 2243,
      "▁fs": 2244,
      "▁fle": 2245,
      "▁fant": 2246,
      "▁fr@@": 2247,
      "▁furi": 2248,
      "▁flex": 2249,
      "ail": 2250,
      "ai@@": 2251,
      "aille": 2252,
      "erve": 2253,
      "▁lou": 2254,
      "▁lon": 2255,
      "▁soign": 2256,
      "quille": 2257,
      "▁neg": 2258,
      "enue": 2259,
      "▁ellement": 2260,
      "▁bu": 2261,
      "▁bri": 2262,
      "▁bois": 2263,
      "▁bu@@": 2264,
      "▁bas": 2265,
      "anc": 2266,
      "▁quasi": 2267,
      "tions": 2268,
      "▁ainee": 2269,
      "▁lave": 2270,
      "▁laches": 2271,
      "▁gl": 2272,
      "▁gri": 2273,
      "▁gard": 2274,
      "▁gu@@": 2275,
      "▁givre": 2276,
      "▁groupe": 2277,
      "▁gonzes": 2278,
      "▁rer": 2279,
      "▁hu@@": 2280,
      "▁le@@": 2281,
      "▁lente": 2282,
      "▁coo": 2283,
      "▁co@@": 2284,
      "▁colle": 2285,
      "▁mee": 2286,
      "▁cele": 2287,
      "▁chin": 2288,
      "▁choc": 2289,
      "▁chic": 2290,
      "▁magn": 2291,
      "▁plait": 2292,
      "cient": 2293,
      "▁tement": 2294,
      "▁parc": 2295,
      "dele": 2296,
      "▁pours": 2297,
      "▁faible": 2298,
      "▁odi": 2299,
      "▁opport": 2300,
      "ras": 2301,
      "raphe": 2302,
      "raite": 2303,
      "▁amuse": 2304,
      "▁six": 2305,
      "celle": 2306,
      "atique": 2307,
      "▁autre": 2308,
      "▁asse": 2309,
      "▁produ": 2310,
      "▁moitie": 2311,
      "get": 2312,
      "gereux": 2313,
      "▁prev": 2314,
      "▁premi": 2315,
      "▁sur@@": 2316,
      "▁sep": 2317,
      "▁seduis": 2318,
      "dition": 2319,
      "ffere": 2320,
      "▁forts": 2321,
      "ites": 2322,
      "▁controle": 2323,
      "urs": 2324,
      "▁vive": 2325,
      "▁impuiss": 2326,
      "abi": 2327,
      "▁pet@@": 2328,
      "▁petri": 2329,
      "▁ru": 2330,
      "▁ris": 2331,
      "▁rui": 2332,
      "▁sale": 2333,
      "line": 2334,
      "▁contentes": 2335,
      "▁chev": 2336,
      "▁songe": 2337,
      "▁fix": 2338,
      "▁file": 2339,
      "▁fidele": 2340,
      "▁excelle": 2341,
      "▁on@@": 2342,
      "▁onn@@": 2343,
      "alien": 2344,
      "▁serv": 2345,
      "▁seri@@": 2346,
      "▁serieuse": 2347,
      "▁libe": 2348,
      "▁peut": 2349,
      "▁cour@@": 2350,
      "▁fac": 2351,
      "▁fachee": 2352,
      "▁habite": 2353,
      "ages": 2354,
      "▁intro": 2355,
      "▁gene": 2356,
      "▁gen@@": 2357,
      "▁genie": 2358,
      "▁geni@@": 2359,
      "▁marche": 2360,
      "▁etudiantes": 2361,
      "▁pres@@": 2362,
      "▁presse": 2363,
      "▁prestation": 2364,
      "▁dist": 2365,
      "▁ment@@": 2366,
      "▁finalement": 2367,
      "▁commere": 2368,
      "▁commettre": 2369,
      "▁terre": 2370,
      "ainement": 2371,
      "▁nouvel": 2372,
      "ctri": 2373,
      "▁mariees": 2374,
      "▁endroit": 2375,
      "▁regret": 2376,
      "▁dependant": 2377,
      "▁tive": 2378,
      "▁ren@@": 2379,
      "olog": 2380,
      "vertie": 2381,
      "▁vein@@": 2382,
      "▁persu": 2383,
      "▁aband": 2384,
      "▁ess@@": 2385,
      "▁deranges": 2386,
      "▁ecris": 2387,
      "▁maladie": 2388,
      "▁mauvaises": 2389,
      "ettes": 2390,
      "▁venu": 2391,
      "▁confrontes": 2392,
      "▁fiers": 2393,
      "▁effic": 2394,
      "▁embr": 2395,
      "▁emplettes": 2396,
      "▁sors": 2397,
      "▁dangereux": 2398,
      "▁autor@@": 2399,
      "▁francaise": 2400,
      "▁tache": 2401,
      "▁dernier": 2402,
      "▁direction": 2403,
      "▁poign": 2404,
      "▁totalement": 2405,
      "▁meilleurs": 2406,
      "▁moti": 2407,
      "▁chambre": 2408,
      "▁ues": 2409,
      "▁uti": 2410,
      "▁epous": 2411,
      "▁pommes": 2412,
      "▁ob@@": 2413,
      "▁elegants": 2414,
      "querir": 2415,
      "▁interessee": 2416,
      "▁conscien": 2417,
      "▁consciente": 2418,
      "▁journal": 2419,
      "▁regardes": 2420,
      "▁folles": 2421,
      "▁repro": 2422,
      "▁chanter": 2423,
      "▁emploi": 2424,
      "▁emiss": 2425,
      "▁trente": 2426,
      "▁ennem@@": 2427,
      "▁ennemie": 2428,
      "▁sau@@": 2429,
      "▁biz": 2430,
      "▁depourvue": 2431,
      "▁confiant": 2432,
      "▁affairee": 2433,
      "ronom": 2434,
      "▁merveille": 2435,
      "▁pathe": 2436,
      "▁bouc": 2437,
      "▁exper": 2438,
      "▁expert": 2439,
      "▁celibataires": 2440,
      "ouee": 2441,
      "▁assise": 2442,
      "▁observe": 2443,
      "▁prison": 2444,
      "▁nerveusement": 2445,
      "▁bleu": 2446,
      "▁quitte": 2447,
      "▁ambitieux": 2448,
      "▁arriv": 2449,
      "▁arrive": 2450,
      "▁maigrich@@": 2451,
      "▁vienne": 2452,
      "▁viendra": 2453,
      "▁lundi": 2454,
      "▁gas@@": 2455,
      "▁sembl@@": 2456,
      "▁bienvenue": 2457,
      "▁emotif": 2458,
      "▁emotive": 2459,
      "▁penses": 2460,
      "▁possi": 2461,
      "▁crimine": 2462,
      "▁suffisamment": 2463,
      "▁chau@@": 2464,
      "▁matinal": 2465,
      "▁vivant": 2466,
      "▁absent": 2467,
      "▁chanceuse": 2468,
      "▁comprehensi@@": 2469,
      "▁blessee": 2470,
      "▁paresseuse": 2471,
      "▁porter": 2472,
      "▁naif": 2473,
      "▁naive": 2474,
      "▁plaint": 2475,
      "▁innocent": 2476,
      "▁innocence": 2477,
      "▁rendez": 2478,
      "▁effrayee": 2479,
      "▁reconn@@": 2480,
      "▁reconnaiss": 2481,
      "▁natation": 2482,
      "▁enchantee": 2483,
      "▁battre": 2484,
      "▁maigrichon": 2485,
      "▁embarrassee": 2486,
      "▁bli@@": 2487,
      "▁banc": 2488,
      "▁banque": 2489,
      "▁bar@@": 2490,
      "▁relation": 2491,
      "▁apparente": 2492,
      "▁ecrire": 2493,
      "▁ecrivain": 2494,
      "▁jalouse": 2495,
      "▁offensee": 2496,
      "▁douche": 2497,
      "▁doyenne": 2498,
      "▁italien": 2499,
      "▁indiffere": 2500,
      "▁familier": 2501,
      "▁geniale": 2502,
      "▁observat": 2503,
      "▁special": 2504,
      "▁dragu": 2505,
      "▁important": 2506,
      "▁divor": 2507,
      "▁approchons": 2508,
      "▁musicien": 2509,
      "▁difficultes": 2510,
      "▁branche": 2511,
      "▁examen": 2512,
      "▁cruel": 2513,
      "▁commencer": 2514,
      "▁craintive": 2515,
      "▁prisonniers": 2516,
      "▁terriblement": 2517,
      "▁reflechir": 2518,
      "▁dormir": 2519,
      "▁citoyen": 2520,
      "▁pays": 2521,
      "▁flics": 2522,
      "▁tranquille": 2523,
      "▁rentrer": 2524,
      "▁hurle": 2525,
      "▁secret": 2526,
      "▁perplexe": 2527,
      "▁soudainement": 2528,
      "▁adulte": 2529,
      "▁vetements": 2530,
      "▁champion": 2531,
      "▁boulot": 2532,
      "▁heroine": 2533,
      "▁poisson": 2534,
      "▁mathematiques": 2535,
      "▁incorrigible": 2536,
      "▁penetrer": 2537,
      "▁cinema": 2538,
      "▁brill": 2539,
      "▁quasiment": 2540,
      "▁gonzesse": 2541,
      "▁chinois": 2542,
      "▁opportun": 2543,
      "▁producti": 2544,
      "▁premier": 2545,
      "▁petrin": 2546,
      "▁emissaire": 2547,
      "ame": 2548,
      "bu": 2549,
      "ber": 2550,
      "ball": 2551,
      "cis": 2552,
      "da": 2553,
      "dent": 2554,
      "ec": 2555,
      "fe": 2556,
      "form": 2557,
      "gie": 2558,
      "hique": 2559,
      "hume": 2560,
      "im": 2561,
      "iles": 2562,
      "jeun": 2563,
      "mar": 2564,
      "mag": 2565,
      "nch": 2566,
      "och": 2567,
      "pi@@": 2568,
      "pulaire": 2569,
      "ronne": 2570,
      "sa": 2571,
      "tent": 2572,
      "tronom": 2573,
      "uti": 2574,
      "urer": 2575,
      "vres": 2576,
      "xi": 2577,
      "ysi": 2578,
      "yoto": 2579,
      "zz": 2580,
      "▁u@@": 2581,
      "est": 2582,
      "▁stri": 2583,
      "▁scient": 2584,
      "oudre": 2585,
      "▁eres": 2586,
      "▁eve": 2587,
      "▁ech@@": 2588,
      "▁eveille": 2589,
      "▁jard": 2590,
      "▁jol@@": 2591,
      "▁ts": 2592,
      "▁tend": 2593,
      "▁tente": 2594,
      "▁tiens": 2595,
      "▁the": 2596,
      "▁taille": 2597,
      "▁puis": 2598,
      "▁pens": 2599,
      "▁puri": 2600,
      "issi": 2601,
      "▁are": 2602,
      "▁ause": 2603,
      "▁amment": 2604,
      "▁aneant": 2605,
      "▁jeu": 2606,
      "▁jeu@@": 2607,
      "▁die": 2608,
      "▁dom": 2609,
      "▁do@@": 2610,
      "▁no": 2611,
      "▁noir": 2612,
      "▁ni@@": 2613,
      "▁nu@@": 2614,
      "▁nier": 2615,
      "▁nor@@": 2616,
      "▁vent": 2617,
      "▁vin": 2618,
      "▁veule": 2619,
      "▁cro": 2620,
      "▁cra": 2621,
      "▁cli": 2622,
      "▁cer@@": 2623,
      "▁cri@@": 2624,
      "▁cor@@": 2625,
      "▁censes": 2626,
      "rent": 2627,
      "rement": 2628,
      "repide": 2629,
      "retiens": 2630,
      "▁suite": 2631,
      "▁ire": 2632,
      "▁imm": 2633,
      "▁ira": 2634,
      "▁irai": 2635,
      "▁ique": 2636,
      "▁ir@@": 2637,
      "▁ig@@": 2638,
      "▁mou": 2639,
      "▁mor": 2640,
      "▁main": 2641,
      "▁mait": 2642,
      "▁mains": 2643,
      "▁mor@@": 2644,
      "▁paro": 2645,
      "▁paie": 2646,
      "▁payer": 2647,
      "▁paix": 2648,
      "onom": 2649,
      "▁det": 2650,
      "▁del@@": 2651,
      "▁detes": 2652,
      "▁devient": 2653,
      "▁ette": 2654,
      "▁etu@@": 2655,
      "▁foi": 2656,
      "▁four": 2657,
      "▁fav": 2658,
      "▁fenetre": 2659,
      "erne": 2660,
      "▁loi": 2661,
      "▁lour": 2662,
      "▁lu@@": 2663,
      "▁lo@@": 2664,
      "▁loque": 2665,
      "▁enque": 2666,
      "▁enc@@": 2667,
      "uni": 2668,
      "entrer": 2669,
      "▁tu@@": 2670,
      "▁uni@@": 2671,
      "▁new": 2672,
      "▁ne@@": 2673,
      "ende": 2674,
      "▁bro": 2675,
      "▁bain": 2676,
      "▁bl@@": 2677,
      "▁biere": 2678,
      "▁bol": 2679,
      "▁bru": 2680,
      "tel": 2681,
      "orbe": 2682,
      "tionne": 2683,
      "tiques": 2684,
      "▁aim": 2685,
      "neante": 2686,
      "▁lache": 2687,
      "▁gn@@": 2688,
      "▁remp": 2689,
      "▁repe": 2690,
      "▁rem@@": 2691,
      "▁h@@": 2692,
      "▁har": 2693,
      "▁hos": 2694,
      "▁hate": 2695,
      "▁lever": 2696,
      "▁col@@": 2697,
      "▁met": 2698,
      "▁mets": 2699,
      "▁mechante": 2700,
      "▁membre": 2701,
      "▁meill": 2702,
      "▁chale": 2703,
      "▁cho@@": 2704,
      "▁chou@@": 2705,
      "▁chaise": 2706,
      "▁chretiens": 2707,
      "▁avi": 2708,
      "▁avenir": 2709,
      "▁maline": 2710,
      "▁plains": 2711,
      "▁plage": 2712,
      "▁place": 2713,
      "▁plac": 2714,
      "cieuse": 2715,
      "▁te@@": 2716,
      "aindre": 2717,
      "▁parla": 2718,
      "cheur": 2719,
      "inuer": 2720,
      "arre": 2721,
      "arate": 2722,
      "▁fai@@": 2723,
      "▁faineant": 2724,
      "▁faineante": 2725,
      "sit": 2726,
      "sion": 2727,
      "▁indre": 2728,
      "▁inuti": 2729,
      "▁oc@@": 2730,
      "▁obe": 2731,
      "ranger": 2732,
      "ience": 2733,
      "illez": 2734,
      "ations": 2735,
      "uite": 2736,
      "▁assit": 2737,
      "▁prom": 2738,
      "▁prom@@": 2739,
      "▁moindre": 2740,
      "▁mon@@": 2741,
      "▁prend": 2742,
      "▁precieux": 2743,
      "▁prechez": 2744,
      "▁survi": 2745,
      "met": 2746,
      "dit": 2747,
      "▁fortes": 2748,
      "▁conse": 2749,
      "itoy": 2750,
      "col": 2751,
      "▁cont@@": 2752,
      "▁contus": 2753,
      "▁contag": 2754,
      "▁continuer": 2755,
      "atre": 2756,
      "ature": 2757,
      "athique": 2758,
      "▁cas": 2759,
      "▁cache": 2760,
      "▁cause": 2761,
      "▁casse": 2762,
      "▁capit": 2763,
      "▁cafe": 2764,
      "▁camar": 2765,
      "▁anim": 2766,
      "▁vif": 2767,
      "▁viol": 2768,
      "▁yo@@": 2769,
      "lac": 2770,
      "usez": 2771,
      "▁bien@@": 2772,
      "irmiere": 2773,
      "▁be@@": 2774,
      "▁entes": 2775,
      "▁enter": 2776,
      "▁enti@@": 2777,
      "▁traver@@": 2778,
      "▁perform": 2779,
      "▁ard": 2780,
      "▁arri@@": 2781,
      "▁arret": 2782,
      "▁ardemment": 2783,
      "▁arranger": 2784,
      "▁occu@@": 2785,
      "tume": 2786,
      "▁rs": 2787,
      "▁rouille": 2788,
      "▁route": 2789,
      "▁resoudre": 2790,
      "▁contenter": 2791,
      "▁comptons": 2792,
      "▁compagn": 2793,
      "mite": 2794,
      "mides": 2795,
      "▁filles": 2796,
      "▁fiables": 2797,
      "▁atta": 2798,
      "▁exter": 2799,
      "▁onere": 2800,
      "▁oncle": 2801,
      "▁rac": 2802,
      "▁ras": 2803,
      "▁rajeun": 2804,
      "▁rationne": 2805,
      "▁hommes": 2806,
      "▁hotel": 2807,
      "▁rire": 2808,
      "▁faits": 2809,
      "▁serm": 2810,
      "terature": 2811,
      "▁jusqu": 2812,
      "▁licen": 2813,
      "▁livres": 2814,
      "▁enfin": 2815,
      "▁couramment": 2816,
      "vidu": 2817,
      "▁intrepide": 2818,
      "▁attendons": 2819,
      "coutume": 2820,
      "▁mentent": 2821,
      "▁mentez": 2822,
      "▁mani": 2823,
      "▁mani@@": 2824,
      "▁commette": 2825,
      "▁iss@@": 2826,
      "▁dem@@": 2827,
      "▁demissi": 2828,
      "▁parlent": 2829,
      "▁termes": 2830,
      "ignes": 2831,
      "▁gentilles": 2832,
      "▁tempor": 2833,
      "▁rejouissons": 2834,
      "ctrice": 2835,
      "ils": 2836,
      "▁devrait": 2837,
      "▁ends": 2838,
      "▁endre": 2839,
      "▁dep@@": 2840,
      "▁depar": 2841,
      "▁tion": 2842,
      "▁tions": 2843,
      "▁timides": 2844,
      "▁ad@@": 2845,
      "inet": 2846,
      "▁aides": 2847,
      "▁habitude": 2848,
      "▁velo": 2849,
      "▁veget": 2850,
      "▁grosse": 2851,
      "▁impati@@": 2852,
      "▁impatience": 2853,
      "▁voix": 2854,
      "▁idio@@": 2855,
      "iers": 2856,
      "▁ecri@@": 2857,
      "▁econom": 2858,
      "▁eleve": 2859,
      "▁malades": 2860,
      "▁ver@@": 2861,
      "▁verti": 2862,
      "▁conn@@": 2863,
      "▁connais": 2864,
      "▁connaitre": 2865,
      "▁ven@@": 2866,
      "▁veniez": 2867,
      "▁confronte": 2868,
      "▁embrasse": 2869,
      "▁affame": 2870,
      "▁reves": 2871,
      "ressive": 2872,
      "▁empois": 2873,
      "▁pleuve": 2874,
      "▁sort": 2875,
      "▁respons@@": 2876,
      "▁responsabi": 2877,
      "▁intelligents": 2878,
      "▁accep": 2879,
      "▁accoutume": 2880,
      "▁ennui": 2881,
      "▁ennu@@": 2882,
      "▁auteur": 2883,
      "▁impressionnes": 2884,
      "▁courtois": 2885,
      "▁tasse": 2886,
      "▁courent": 2887,
      "▁enseigner": 2888,
      "▁idiotes": 2889,
      "▁inquiets": 2890,
      "▁agressive": 2891,
      "▁voyant": 2892,
      "icie": 2893,
      "▁cre@@": 2894,
      "▁creuse": 2895,
      "▁dispar": 2896,
      "▁dispu@@": 2897,
      "▁chaque": 2898,
      "▁propres": 2899,
      "▁proprie": 2900,
      "▁attiree": 2901,
      "▁epoux": 2902,
      "▁pol@@": 2903,
      "▁poete": 2904,
      "▁populaire": 2905,
      "▁cuis@@": 2906,
      "▁cuisin@@": 2907,
      "▁eleg@@": 2908,
      "▁impatients": 2909,
      "▁consci@@": 2910,
      "▁journee": 2911,
      "▁journ@@": 2912,
      "▁ten@@": 2913,
      "▁tenace": 2914,
      "▁condu": 2915,
      "▁condu@@": 2916,
      "▁regardent": 2917,
      "bilite": 2918,
      "▁ouver": 2919,
      "▁ouver@@": 2920,
      "▁reparer": 2921,
      "▁contrariees": 2922,
      "▁ecoule": 2923,
      "▁ecou@@": 2924,
      "▁types": 2925,
      "enez": 2926,
      "▁chanteur": 2927,
      "▁courageuses": 2928,
      "▁medecins": 2929,
      "▁partis": 2930,
      "▁different": 2931,
      "▁sauf": 2932,
      "▁sauve": 2933,
      "▁phot": 2934,
      "▁physi": 2935,
      "▁prud@@": 2936,
      "▁normaux": 2937,
      "▁simple": 2938,
      "▁facil@@": 2939,
      "▁depourvus": 2940,
      "▁surprises": 2941,
      "▁censees": 2942,
      "▁merde": 2943,
      "▁patronne": 2944,
      "▁boug": 2945,
      "▁hero@@": 2946,
      "▁expri": 2947,
      "▁marrants": 2948,
      "▁adorer": 2949,
      "▁ordres": 2950,
      "▁ordonnee": 2951,
      "genique": 2952,
      "▁out": 2953,
      "▁ouest": 2954,
      "▁patiente": 2955,
      "▁reussite": 2956,
      "▁deses@@": 2957,
      "▁ennuyer": 2958,
      "▁ennuyons": 2959,
      "▁obsti": 2960,
      "▁astuci@@": 2961,
      "▁paress@@": 2962,
      "▁decis": 2963,
      "▁decus": 2964,
      "▁essay@@": 2965,
      "▁sympathique": 2966,
      "▁stupi@@": 2967,
      "▁tantinet": 2968,
      "▁degour": 2969,
      "▁degoute": 2970,
      "▁degout": 2971,
      "▁bleue": 2972,
      "▁amerique": 2973,
      "▁arriver": 2974,
      "▁noms": 2975,
      "▁debout": 2976,
      "▁lunatique": 2977,
      "▁gasp": 2978,
      "▁ingenieux": 2979,
      "▁ingenieuse": 2980,
      "▁sembl": 2981,
      "▁impressionnees": 2982,
      "▁oit": 2983,
      "▁elue": 2984,
      "▁pensez": 2985,
      "▁suffis@@": 2986,
      "▁espoir": 2987,
      "▁montra": 2988,
      "▁chauve": 2989,
      "▁viv@@": 2990,
      "▁absorbe": 2991,
      "▁grossieres": 2992,
      "▁autorisee": 2993,
      "▁comprehensif": 2994,
      "▁comprehensive": 2995,
      "▁adorent": 2996,
      "▁pire": 2997,
      "▁pionnier": 2998,
      "▁pensees": 2999,
      "▁cardi": 3000,
      "▁litterature": 3001,
      "▁concert": 3002,
      "▁concerne": 3003,
      "▁concentrer": 3004,
      "▁appel": 3005,
      "▁appelle": 3006,
      "▁cuisiner": 3007,
      "▁cuisiniere": 3008,
      "▁reconnais": 3009,
      "▁scep@@": 3010,
      "▁puissant": 3011,
      "▁visite": 3012,
      "▁minu": 3013,
      "▁mince": 3014,
      "▁endormie": 3015,
      "▁romancier": 3016,
      "▁photogenique": 3017,
      "▁maigrichonne": 3018,
      "gnez": 3019,
      "▁kyoto": 3020,
      "▁karate": 3021,
      "▁pois@@": 3022,
      "▁coincee": 3023,
      "▁remue": 3024,
      "▁remonte": 3025,
      "▁math": 3026,
      "▁apparentes": 3027,
      "▁convaincus": 3028,
      "▁jalouses": 3029,
      "▁plaisantez": 3030,
      "▁z@@": 3031,
      "▁splen": 3032,
      "▁volont": 3033,
      "▁rendons": 3034,
      "▁individu": 3035,
      "▁arrete": 3036,
      "▁famil@@": 3037,
      "▁genial": 3038,
      "▁interessante": 3039,
      "▁coupables": 3040,
      "▁creatif": 3041,
      "▁creative": 3042,
      "▁epuise": 3043,
      "▁observateur": 3044,
      "▁americaine": 3045,
      "▁grossiers": 3046,
      "arien": 3047,
      "▁sentir": 3048,
      "▁ev@@": 3049,
      "▁pensi@@": 3050,
      "▁all@@": 3051,
      "▁drogue": 3052,
      "▁droles": 3053,
      "▁voisins": 3054,
      "▁fermes": 3055,
      "▁blaguer": 3056,
      "▁hum@@": 3057,
      "▁hauteur": 3058,
      "▁infirmiere": 3059,
      "▁trompes": 3060,
      "▁extraverti": 3061,
      "▁extravertie": 3062,
      "▁sourire": 3063,
      "▁musici@@": 3064,
      "▁pratiquement": 3065,
      "▁raffinee": 3066,
      "▁difficulte": 3067,
      "▁stresse": 3068,
      "▁privee": 3069,
      "▁suspe": 3070,
      "▁suspi": 3071,
      "▁payee": 3072,
      "▁lisent": 3073,
      "▁nettoie": 3074,
      "▁reponse": 3075,
      "▁repondre": 3076,
      "▁deshab": 3077,
      "▁desireux": 3078,
      "▁choquee": 3079,
      "▁pardonne": 3080,
      "▁situation": 3081,
      "▁armee": 3082,
      "▁respecte": 3083,
      "▁genereux": 3084,
      "▁embetant": 3085,
      "▁football": 3086,
      "▁bienvenues": 3087,
      "▁tatillon": 3088,
      "▁ski": 3089,
      "▁echoue": 3090,
      "▁joyeux": 3091,
      "▁sugges": 3092,
      "▁fondu": 3093,
      "▁bavard": 3094,
      "▁gerant": 3095,
      "▁remets": 3096,
      "▁histoire": 3097,
      "▁magas": 3098,
      "▁imprudent": 3099,
      "▁romps": 3100,
      "▁partenaires": 3101,
      "▁nombreuses": 3102,
      "▁indelicat": 3103,
      "▁terrifie": 3104,
      "▁ponctuel": 3105,
      "▁religi@@": 3106,
      "▁professionnel": 3107,
      "▁vanne": 3108,
      "▁monsieur": 3109,
      "▁decois": 3110,
      "▁fleurs": 3111,
      "▁furieux": 3112,
      "▁soigneusement": 3113,
      "▁coope": 3114,
      "▁celebre": 3115,
      "▁magnifique": 3116,
      "▁seduisante": 3117,
      "▁ruine": 3118,
      "▁libere": 3119,
      "▁introverti": 3120,
      "ologie": 3121,
      "▁efficace": 3122,
      "▁embrouille": 3123,
      "▁derniers": 3124,
      "▁motive": 3125,
      "▁util": 3126,
      "▁epouser": 3127,
      "▁merveilleuse": 3128,
      "▁pathetique": 3129,
      "▁experience": 3130,
      "▁possibilite": 3131,
      "▁apparentees": 3132,
      "▁observatrice": 3133,
      "▁opportuniste": 3134,
      "▁scientifique": 3135,
      "▁jardin": 3136,
      "▁purit": 3137,
      "▁veulent": 3138,
      "▁client": 3139,
      "▁maitresse": 3140,
      "▁paroles": 3141,
      "▁faveur": 3142,
      "▁bruy": 3143,
      "▁repeter": 3144,
      "▁hosti": 3145,
      "▁meill@@": 3146,
      "▁chaleur": 3147,
      "▁placard": 3148,
      "▁inutiles": 3149,
      "▁capitaine": 3150,
      "▁animaux": 3151,
      "▁violon": 3152,
      "▁performance": 3153,
      "▁exterieur": 3154,
      "▁licencie": 3155,
      "▁vegetarien": 3156,
      "▁responsabilite": 3157,
      "▁splendi": 3158,
      "ak": 3159,
      "am": 3160,
      "a@@": 3161,
      "ape": 3162,
      "ales": 3163,
      "amb": 3164,
      "asse": 3165,
      "alite": 3166,
      "bum": 3167,
      "ctu": 3168,
      "dat": 3169,
      "dable": 3170,
      "droit": 3171,
      "dail": 3172,
      "ee": 3173,
      "el": 3174,
      "eci": 3175,
      "etique": 3176,
      "gole": 3177,
      "gir": 3178,
      "graphe": 3179,
      "hous": 3180,
      "heure": 3181,
      "iz": 3182,
      "ich": 3183,
      "ige": 3184,
      "inte": 3185,
      "ic@@": 3186,
      "iente": 3187,
      "ias": 3188,
      "ionnee": 3189,
      "ident": 3190,
      "jus": 3191,
      "lm": 3192,
      "lin": 3193,
      "lat": 3194,
      "lom": 3195,
      "lig": 3196,
      "loy": 3197,
      "laire": 3198,
      "mn": 3199
    },
    "merges": [
      "▁ .",
      "▁. \n",
      "e s",
      "▁ s",
      "o u",
      "▁ e",
      "▁ j",
      "▁ t",
      "▁ p",
      "i s",
      "▁ a",
      "▁j e",
      "▁ d",
      "▁ n",
      "n t",
      "ou s",
      "l e",
      "▁ v",
      "▁ c",
      "r e",
      "▁s u",
      "▁ es",
      "@ @",
      "▁ i",
      "▁su is",
      "▁ m",
      "▁p a",
      "o n",
      "▁d e",
      "▁es t",
      "▁v ous",
      "▁i l",
      "▁pa s",
      "▁e t",
      "▁ f",
      "a i",
      "l le",
      "e r",
      "▁ l",
      "▁e n",
      "▁s o",
      "u n",
      "e nt",
      "▁n ous",
      "q u",
      "▁t u",
      "▁ un",
      "▁et es",
      "▁t r",
      "e u",
      "▁n e",
      "e n",
      "m m",
      "o i",
      "▁e lle",
      "ou r",
      "▁ b",
      "t e",
      "u s",
      "a n",
      "▁ qu",
      "a is",
      "▁so mm",
      "▁somm es",
      "o r",
      "t i",
      "a nt",
      "▁a i",
      "n e",
      "▁l a",
      "m ent",
      "▁ g",
      "▁ re",
      "▁d es",
      "▁qu e",
      "r i",
      "▁ h",
      "▁ le",
      "▁c o",
      "▁tr es",
      "s e",
      "▁m e",
      "on s",
      "▁c e",
      "l l",
      "▁c h",
      "▁a v",
      "▁t ou",
      "▁m a",
      "▁so nt",
      "r o",
      "r es",
      "▁p l",
      "c i",
      "m p",
      "▁t e",
      "ai n",
      "▁un e",
      "▁pa r",
      "i e",
      "c h",
      "d e",
      "▁p our",
      "▁il s",
      "u x",
      "▁pl us",
      "eu r",
      "o t",
      "i n",
      "or t",
      "u e",
      "a r",
      "b le",
      "ll es",
      "▁f ai",
      "s i",
      "▁i n",
      "▁ o",
      "r a",
      "oi r",
      "▁tou t",
      "r ai",
      "▁a m",
      "qu e",
      "eu x",
      "r an",
      "i en",
      "i lle",
      "▁s i",
      "c e",
      "a ti",
      "▁v ais",
      "c u",
      "▁e lles",
      "▁a u",
      "on ne",
      "v e",
      "u i",
      "▁a s",
      "▁p ro",
      "▁m oi",
      "p e",
      "a u",
      "▁d u",
      "g e",
      "▁m on",
      "o le",
      "▁p re",
      "▁su r",
      "m e",
      "▁s e",
      "! \n",
      "▁ !\n",
      "j our",
      "d i",
      "f f",
      "▁tr o",
      "▁f ort",
      "▁c on",
      "eu re",
      "▁av e",
      "an s",
      "▁des ole",
      "i t",
      "▁tr ain",
      "▁v rai",
      "c o",
      "▁h eure",
      "i @@",
      "▁co nt",
      "mm e",
      "a t",
      "u r",
      "▁tro p",
      "▁i ci",
      "o m",
      "▁t oi",
      "▁c a",
      "ch e",
      "▁tou jour",
      "▁toujour s",
      "▁t ous",
      "▁l es",
      "▁a n",
      "ant e",
      "▁vrai ment",
      "▁v i",
      "r @@",
      "▁a p",
      "a v",
      "▁a t",
      "i g",
      "▁ y",
      "nt e",
      "l a",
      "? \n",
      "▁ ?\n",
      "us e",
      "a ble",
      "ot re",
      "▁ave c",
      "en d",
      "g ue",
      "▁b ien",
      "▁d ans",
      "i r",
      "▁i mp",
      "▁av oir",
      "▁b e",
      "▁e nt",
      "▁g ran",
      "g er",
      "▁tr av",
      "▁b on",
      "co re",
      "▁en core",
      "c cu",
      "l es",
      "▁d i",
      "▁t om",
      "a b",
      "▁p er",
      "▁f ais",
      "ri e",
      "▁trav ai",
      "▁f ati",
      "l @@",
      "▁p e",
      "ar d",
      "▁a r",
      "▁o ccu",
      "t u",
      "t es",
      "▁ r",
      "▁s a",
      "▁ res",
      "▁p eur",
      "l i",
      "▁et re",
      "▁fati gue",
      "▁cont ent",
      "▁l ui",
      "▁ch e",
      "▁tout es",
      "▁s eu",
      "o is",
      "lle ment",
      "us si",
      "▁heure ux",
      "▁s on",
      "▁co mp",
      "m i",
      "▁v otre",
      "o s",
      "u @@",
      "eu se",
      "▁f i",
      "ai t",
      "ais on",
      "▁at t",
      "▁et u",
      "n d",
      "▁e x",
      "▁occu pe",
      "▁ on",
      "▁ ra",
      "se z",
      "▁fai re",
      "a le",
      "▁par ti",
      "▁v a",
      "▁m ai",
      "o @@",
      "ou v",
      "is e",
      "▁h o",
      "▁ ri",
      "▁re t",
      "▁a ussi",
      "▁as sez",
      "ll ons",
      "▁fai t",
      "▁gran d",
      "a l",
      "c @@",
      "o y",
      "▁s er",
      "ou ve",
      "▁m es",
      "t er",
      "▁j us",
      "ai re",
      "er t",
      "▁l i",
      "▁en f",
      "▁te llement",
      "▁desole e",
      "▁p eu",
      "▁c our",
      "▁f a",
      "▁h ab",
      "a g",
      "or m",
      "v i",
      "▁je un",
      "▁i nt",
      "▁g en",
      "▁ma r",
      "▁att end",
      "▁jus te",
      "▁t on",
      "▁a lle",
      "ant s",
      "▁av ons",
      "▁etu di",
      "c ou",
      "s es",
      "on n",
      "▁de ux",
      "▁p res",
      "▁d is",
      "▁m ent",
      "▁m an",
      "▁f in",
      "▁co mme",
      "m b",
      "▁a llons",
      "en ant",
      "nt enant",
      "▁v oir",
      "▁ap p",
      "▁be au",
      "▁mai ntenant",
      "▁b onne",
      "▁am i",
      "u is",
      "▁ is",
      "▁de m",
      "▁par le",
      "▁vi eux",
      "▁t er",
      "ai ne",
      "▁qu i",
      "ig n",
      "v re",
      "ou @@",
      "te ment",
      "t te",
      "▁g ent",
      "c es",
      "i que",
      "▁n ouve",
      "▁f ille",
      "ent e",
      "▁re j",
      "▁heure use",
      "▁jeun e",
      "m @@",
      "▁c r",
      "▁c ert",
      "▁que l",
      "▁te mp",
      "▁rej ou",
      "▁e r",
      "▁ch er",
      "▁ma l",
      "ie re",
      "▁rejou is",
      "c t",
      "t re",
      "is te",
      "▁ma rie",
      "▁ho mme",
      "b e",
      "i l",
      "y e",
      "▁s ou",
      "▁j a",
      "▁i nte",
      "▁de v",
      "er es",
      "▁en d",
      "▁en se",
      "en s",
      "an ce",
      "▁re g",
      "▁co mm",
      "ien s",
      "▁pre t",
      "▁an s",
      "▁travai lle",
      "▁r aison",
      "▁che z",
      "▁temp s",
      "▁v ie",
      "ain s",
      "▁fin i",
      "▁inte ll",
      "r is",
      "en ce",
      "▁seu l",
      "▁ret ard",
      "▁a ge",
      "▁m i",
      "▁de p",
      "▁f or",
      "▁fai m",
      "▁travai l",
      "▁intell ig",
      "o nt",
      "▁s es",
      "▁t i",
      "▁a d",
      "re r",
      "▁me me",
      "▁pro f",
      "at is",
      "i ne",
      "o se",
      "s se",
      "▁s atis",
      "▁j ou",
      "▁ai d",
      "▁re n",
      "▁hab it",
      "o l",
      "v er",
      "▁v e",
      "▁satis f",
      "p on",
      "▁g ro",
      "▁h ui",
      "▁ap res",
      "▁per s",
      "▁alle r",
      "▁ce la",
      "▁imp ati",
      "▁di ff",
      "u v",
      "▁a nt",
      "le re",
      "▁v oi",
      "▁i di",
      "▁f e",
      "en se",
      "▁co lere",
      "▁enf ant",
      "a ge",
      "i er",
      "u t",
      "▁e ux",
      "▁a b",
      "▁es s",
      "▁de ran",
      "▁am ie",
      "▁ave z",
      "cou p",
      "▁beau coup",
      "▁prof es",
      "▁habit ue",
      "e re",
      "▁m aison",
      "▁ce tte",
      "▁ma uv",
      "▁pe re",
      "nd re",
      "b re",
      "▁e c",
      "oi n",
      "▁g ar",
      "▁au jour",
      "▁an g",
      "▁cr ains",
      "▁aid er",
      "▁aujour d",
      "m an",
      "p i",
      "▁e le",
      "▁t ale",
      "▁m ort",
      "us es",
      "or te",
      "ant es",
      "▁re @@",
      "▁ma la",
      "▁in s",
      "▁pe ti",
      "▁int eres",
      "▁dem ain",
      "▁mauv ais",
      "▁tale nt",
      "a s",
      "i f",
      "m ble",
      "n es",
      "▁a ux",
      "le ment",
      "▁v er",
      "ri te",
      "▁con n",
      "▁per d",
      "▁gro s",
      "e t",
      "▁t @@",
      "▁v en",
      "▁f ran",
      "▁in c",
      "▁in qu",
      "cu rite",
      "▁con f",
      "tu re",
      "▁comp le",
      "▁fi er",
      "▁pers onne",
      "m es",
      "p ons",
      "▁e ff",
      "▁e mb",
      "▁a ff",
      "▁n otre",
      "▁re v",
      "res si",
      "▁se curite",
      "▁gran de",
      "nd s",
      "▁parti e",
      "▁parti r",
      "▁pres que",
      "▁cert ain",
      "l ais",
      "s eur",
      "▁ or",
      "▁ ro",
      "▁e mp",
      "▁p le",
      "▁so r",
      "en si",
      "ch er",
      "▁am is",
      "mi ne",
      "▁comm ence",
      "▁fe mme",
      "▁profes seur",
      "▁ang lais",
      "▁comple tement",
      "a re",
      "u ri",
      "v ain",
      "▁v @@",
      "▁c es",
      "er @@",
      "ti on",
      "▁ch an",
      "▁sur p",
      "▁res pons",
      "▁ri en",
      "▁quel que",
      "▁intellig ent",
      "▁fran c",
      "r u",
      "▁ ons",
      "▁a c",
      "▁d an",
      "▁f ou",
      "▁en n",
      "▁me ille",
      "▁o nt",
      "▁au t",
      "able ment",
      "▁imp ressi",
      "▁be lle",
      "▁occupe e",
      "▁cour t",
      "▁attend s",
      "▁voi ture",
      "▁franc ais",
      "a ger",
      "i on",
      "▁s ens",
      "▁e ur",
      "▁t a",
      "▁p orte",
      "▁n on",
      "▁c ou",
      "▁de j",
      "▁de r",
      "eu ses",
      "ch es",
      "▁di re",
      "▁ense ign",
      "▁idi ot",
      "▁inqu ie",
      "o c",
      "u l",
      "u re",
      "▁ r@@",
      "▁s our",
      "▁p oi",
      "▁a g",
      "▁v oy",
      "▁su re",
      "▁m our",
      "qu es",
      "▁ai me",
      "ri @@",
      "▁pl ut",
      "ci n",
      "▁cher che",
      "▁ja pon",
      "▁satisf ait",
      "▁deran ge",
      "▁plut ot",
      "d ie",
      "i ci",
      "r oi",
      "t ons",
      "▁e e",
      "▁t ot",
      "▁c re",
      "▁c ons",
      "▁m ais",
      "▁des orm",
      "▁ch ose",
      "▁con vain",
      "▁content e",
      "▁etudi ant",
      "▁dis p",
      "▁app re",
      "▁nouve au",
      "ye z",
      "▁mala de",
      "▁peti t",
      "▁meille ur",
      "▁desorm ais",
      "g n",
      "g u",
      "t @@",
      "▁e g",
      "▁v iens",
      "▁c @@",
      "▁m o",
      "▁en @@",
      "oi re",
      "▁le ur",
      "▁ch a",
      "▁in @@",
      "▁pro b",
      "▁pro p",
      "co nt",
      "▁at ti",
      "▁seu le",
      "▁mour ir",
      "c on",
      "s @@",
      "▁ u",
      "▁s @@",
      "▁e p",
      "▁t ort",
      "▁p o",
      "▁d @@",
      "▁c uis",
      "▁m us",
      "▁et e",
      "▁f ois",
      "er v",
      "▁so ir",
      "ti que",
      "▁ai de",
      "▁par f",
      "▁fai tes",
      "▁o b",
      "▁cont ra",
      "rie re",
      "▁mar re",
      "▁ment eur",
      "▁mi eux",
      "▁ele g",
      "h e",
      "l s",
      "t eur",
      "▁p ouv",
      "▁v ont",
      "▁c uri",
      "▁f re",
      "qu er",
      "or @@",
      "▁ai n",
      "▁tou te",
      "▁pro ble",
      "ab les",
      "▁ter mine",
      "▁impati ent",
      "▁interes se",
      "ru d",
      "▁cons ci",
      "u m",
      "▁s ans",
      "▁j our",
      "▁t en",
      "▁p @@",
      "▁a r@@",
      "re e",
      "▁f iere",
      "▁me de",
      "ati on",
      "onne e",
      "▁con d",
      "▁va s",
      "▁enf ants",
      "▁reg ard",
      "▁ren cont",
      "▁dan ger",
      "▁der riere",
      "b i",
      "g es",
      "g ent",
      "i te",
      "p p",
      "▁ our",
      "▁ ouv",
      "▁d in",
      "nt es",
      "▁m ign",
      "▁f o",
      "ne e",
      "▁re p",
      "ro y",
      "ro le",
      "▁te le",
      "▁pre te",
      "▁ar gent",
      "▁fatigue e",
      "▁che f",
      "▁comp re",
      "mi de",
      "ale ment",
      "▁li bre",
      "▁for me",
      "▁inc roy",
      "▁japon ais",
      "▁contra rie",
      "i c",
      "▁e cou",
      "▁t y",
      "▁d it",
      "▁i e",
      "▁m @@",
      "▁l @@",
      "en e",
      "mm ent",
      "▁ch ant",
      "ar de",
      "▁mon de",
      "▁ent end",
      "▁cour ag",
      "▁gen re",
      "▁parle r",
      "▁gent ille",
      "▁gent il",
      "ct ue",
      "▁marie e",
      "▁sou ff",
      "▁vie ille",
      "▁emp l",
      "▁mede cin",
      "a te",
      "a ux",
      "l ui",
      "v es",
      "▁ ur",
      "▁e m",
      "▁t es",
      "▁t re",
      "re ux",
      "▁et @@",
      "▁et ran",
      "▁f @@",
      "▁en ne",
      "▁b @@",
      "▁b les",
      "▁g ag",
      "▁co te",
      "▁ce lui",
      "▁ch @@",
      "▁ma ri",
      "▁par t",
      "▁in v",
      "▁fais ons",
      "▁ho nte",
      "▁man ger",
      "▁travaille r",
      "▁diff ere",
      "▁gar con",
      "pi de",
      "▁rev oir",
      "▁dej a",
      "d s",
      "m ais",
      "n er",
      "▁s au",
      "▁e @@",
      "▁t i@@",
      "▁p h",
      "▁p eux",
      "▁p rud",
      "▁n orm",
      "nt s",
      "▁c la",
      "re ur",
      "ai res",
      "our v",
      "▁b i",
      "te e",
      "rai nt",
      "▁si mp",
      "▁vi te",
      "▁etu die",
      "▁ri che",
      "▁ser vi",
      "▁fa ci",
      "▁alle z",
      "▁cert aine",
      "▁ja mais",
      "▁dep ourv",
      "▁conf i",
      "▁aff aire",
      "▁surp ris",
      "▁prob ablement",
      "▁entend re",
      "▁souff re",
      "b at",
      "b les",
      "i lles",
      "j et",
      "p able",
      "r on",
      "t tre",
      "▁s y",
      "▁j al",
      "▁n @@",
      "▁n ager",
      "▁c ense",
      "▁c raint",
      "▁m er",
      "▁pa t",
      "▁de @@",
      "▁b ou",
      "or s",
      "ti tu",
      "▁g @@",
      "▁des s",
      "▁h er",
      "▁ce li",
      "▁pro @@",
      "▁du r",
      "▁pre p",
      "▁fi ls",
      "▁ex p",
      "▁mai g",
      "ise e",
      "▁mar r",
      "▁end @@",
      "▁ense mble",
      "▁seul s",
      "▁ad o",
      "▁or d",
      "▁mo ment",
      "▁celi bat",
      "g en",
      "m in",
      "m ille",
      "p es",
      "t s",
      "▁ ou",
      "ou e",
      "▁e re",
      "▁su c",
      "▁pa ti",
      "▁f au",
      "▁so if",
      "▁tr ouv",
      "▁re ussi",
      "▁des es",
      "▁me re",
      "▁ce t",
      "ch @@",
      "▁in vi",
      "▁as s",
      "▁as tu",
      "▁y @@",
      "▁ra vi",
      "▁ret our",
      "▁fa mille",
      "▁jou e",
      "▁ins titu",
      "▁perd re",
      "▁eff ra",
      "▁ple in",
      "▁enn u",
      "▁enseign ant",
      "▁ob s",
      "▁astu ci",
      "v ie",
      "▁e z",
      "▁p ris",
      "is s",
      "▁a is",
      "▁a c@@",
      "▁a ctue",
      "▁n erv",
      "▁pa res",
      "▁de c",
      "▁b our",
      "an ces",
      "▁somm e",
      "ti n",
      "ri t",
      "▁par @@",
      "in @@",
      "▁am ou",
      "ui t",
      "▁pre ndre",
      "▁pre nds",
      "▁nouve lle",
      "▁er reur",
      "▁jou er",
      "▁ess a",
      "▁respons able",
      "▁poi nt",
      "▁convain cu",
      "▁atti r",
      "▁mus ique",
      "▁fre re",
      "▁ty pe",
      "▁simp lement",
      "▁sy mp",
      "▁actue llement",
      "a ce",
      "d es",
      "d re",
      "t ra",
      "u er",
      "v en",
      "y er",
      "▁s tu",
      "▁t ant",
      "▁a ble",
      "▁a l@@",
      "le r",
      "▁v os",
      "▁su jet",
      "▁de g",
      "▁f roi",
      "ai e",
      "qu i",
      "▁tr ouve",
      "▁b le",
      "▁b ons",
      "an de",
      "▁qu it",
      "ti e",
      "▁ai es",
      "▁ce lle",
      "▁av @@",
      "▁pl ais",
      "ch ante",
      "▁am er",
      "▁am bi",
      "▁si @@",
      "cu l",
      "▁pre tes",
      "ff is",
      "▁con @@",
      "▁ent rai",
      "▁per @@",
      "▁ar t",
      "▁ar ri",
      "▁li re",
      "onn es",
      "uis s",
      "▁reg arde",
      "▁intellig ente",
      "▁ti mide",
      "▁satisf ai",
      "▁ess aie",
      "▁talent u",
      "ici le",
      "▁ain si",
      "▁etran ger",
      "▁inv it",
      "▁cla sse",
      "▁dess us",
      "▁maig ri",
      "▁suc ces",
      "c ances",
      "f @@",
      "i eur",
      "n is",
      "o ti",
      "u vre",
      "▁e use",
      "▁p ie",
      "▁n om",
      "▁n o@@",
      "▁v ien",
      "▁v ille",
      "▁c an",
      "re t",
      "▁su pp",
      "▁es @@",
      "▁m i@@",
      "▁pa re",
      "▁pa uvre",
      "▁de b",
      "▁l un",
      "▁l oin",
      "▁so yez",
      "▁tr iste",
      "ais s",
      "▁g a",
      "▁g e",
      "▁g ra",
      "▁g as",
      "▁re c",
      "▁par s",
      "ie z",
      "ot o",
      "▁in de",
      "▁in gen",
      "▁o @@",
      "▁o ff",
      "ra sse",
      "ce p",
      "ui re",
      "▁as @@",
      "▁se m",
      "▁se mb",
      "▁bien ven",
      "▁imp li",
      "▁occu pes",
      "▁che min",
      "▁ra vie",
      "▁va cances",
      "▁ri @@",
      "▁etudi ants",
      "▁man quer",
      "▁dev oir",
      "▁ad or",
      "▁diff icile",
      "▁ven ir",
      "▁emb ar",
      "▁impressi onne",
      "▁inquie te",
      "▁parf ai",
      "▁ten nis",
      "▁regard er",
      "▁rencont rer",
      "▁em oti",
      "▁celibat aire",
      "▁somme il",
      "▁froi d",
      "c s",
      "d u",
      "d ans",
      "e un",
      "h ensi",
      "i ble",
      "i eux",
      "i ver",
      "t ri",
      "▁ oi",
      "▁ use",
      "▁s ous",
      "ou ille",
      "▁e l",
      "▁e ment",
      "▁e qui",
      "▁j @@",
      "▁p en",
      "▁p i@@",
      "▁p os",
      "▁a che",
      "▁a nte",
      "▁a yez",
      "▁d role",
      "▁c ri",
      "▁su ffis",
      "▁es p",
      "▁m ont",
      "▁de dans",
      "▁qu @@",
      "▁ai r",
      "▁ai t",
      "▁ai ne",
      "▁ch au",
      "▁ma tin",
      "ci e",
      "▁te te",
      "si te",
      "▁am @@",
      "▁am us",
      "at s",
      "▁an @@",
      "▁vi v",
      "▁bon nes",
      "li te",
      "▁seu les",
      "▁comp te",
      "os es",
      "oy en",
      "▁jeun es",
      "▁ment euse",
      "▁dem ande",
      "▁ab s",
      "▁gros si",
      "▁chan c",
      "▁ac c",
      "▁aut or",
      "▁ag @@",
      "gu es",
      "▁eg alement",
      "▁proble me",
      "▁our @@",
      "▁compre hensi",
      "▁bles se",
      "▁servi ce",
      "▁ado re",
      "▁deses pe",
      "▁pares s",
      "▁amou reux",
      "▁art iste",
      "▁sem aine",
      "▁ador able",
      "▁parfai tement",
      "▁equi pe",
      "a que",
      "f s",
      "i euse",
      "n oc",
      "o te",
      "p h",
      "▁s ouv",
      "ou x",
      "▁p i",
      "▁p ort",
      "▁p ense",
      "▁a @@",
      "▁n ai",
      "▁n uit",
      "▁c in",
      "▁c ar",
      "▁i @@",
      "▁i ne",
      "▁i vre",
      "▁l it",
      "▁so is",
      "▁un iver",
      "▁tr @@",
      "en ir",
      "▁b oire",
      "or ri",
      "▁le ttre",
      "▁co m@@",
      "▁ch ar",
      "▁pl ai",
      "▁in noc",
      "▁am our",
      "▁pro ch",
      "▁tro is",
      "▁con c",
      "▁cont re",
      "▁ca pable",
      "▁ap @@",
      "▁ap pe",
      "ig ne",
      "▁di x",
      "▁sa ou",
      "▁res s",
      "oy e",
      "▁li vre",
      "onn er",
      "▁ter ri",
      "ct eur",
      "▁mi di",
      "▁for @@",
      "▁ren de",
      "▁ab @@",
      "▁habitue e",
      "▁ro be",
      "ensi ble",
      "▁inquie t",
      "▁voy age",
      "roi t",
      "▁cuis in",
      "▁pouv ons",
      "▁proble mes",
      "▁jour s",
      "▁cond uire",
      "▁incroy ablement",
      "▁confi ance",
      "▁institu teur",
      "▁effra ye",
      "▁symp a",
      "▁rec onn",
      "▁souv ent",
      "▁univer site",
      "a c",
      "a rer",
      "m en",
      "n @@",
      "o que",
      "p er",
      "t ant",
      "u me",
      "▁ ise",
      "es oin",
      "▁s ai",
      "▁s cep",
      "ou te",
      "▁e au",
      "▁e l@@",
      "▁t our",
      "▁t o@@",
      "▁p on",
      "▁p uiss",
      "▁a ise",
      "▁d ou@@",
      "▁n at",
      "le x",
      "▁v is",
      "▁i gn",
      "▁i t@@",
      "▁m in",
      "▁de cu",
      "▁en chante",
      "▁so r@@",
      "▁b at",
      "▁b esoin",
      "ti @@",
      "▁ch es",
      "▁ch ance",
      "in s",
      "▁au @@",
      "▁pre @@",
      "▁se mble",
      "▁vi vre",
      "▁y eux",
      "▁ent s",
      "▁travai llons",
      "▁ex c",
      "▁fa s",
      "▁hab ille",
      "onn ier",
      "▁is @@",
      "▁sou ci",
      "▁dev @@",
      "▁end orm",
      "▁impati ente",
      "▁ec ole",
      "▁ro man",
      "▁appre nds",
      "▁eg ois",
      "▁consci ent",
      "▁ouv ert",
      "▁mign on",
      "▁ph oto",
      "▁prud ent",
      "▁invi te",
      "▁maigri ch",
      "▁embar rasse",
      "a d",
      "a mment",
      "b li",
      "c te",
      "g ne",
      "i nt",
      "i vre",
      "l ie",
      "▁ k",
      "▁ rai",
      "▁ ou@@",
      "▁s ante",
      "▁s ensible",
      "▁e es",
      "▁e r@@",
      "▁e u@@",
      "▁e m@@",
      "▁e uses",
      "▁p r@@",
      "▁p ois",
      "▁a l",
      "▁d onne",
      "▁d i@@",
      "▁v i@@",
      "▁v end",
      "▁c oin",
      "▁su @@",
      "▁i c@@",
      "▁m o@@",
      "▁en g",
      "▁en v",
      "mm es",
      "▁b l",
      "▁b an",
      "▁b ar",
      "an d",
      "▁ai @@",
      "▁re l",
      "▁re m",
      "▁h onne",
      "▁h um",
      "▁h ors",
      "▁ch oses",
      "▁ma t",
      "▁ma l@@",
      "▁pl ante",
      "ch ent",
      "eur s",
      "▁o p",
      "rai t",
      "ien ne",
      "che e",
      "▁an d",
      "end ant",
      "▁ar ro",
      "▁sa ge",
      "▁seu lement",
      "ait re",
      "▁li b",
      "▁int er",
      "mb re",
      "▁app @@",
      "▁app are",
      "▁ami es",
      "▁quel ques",
      "▁comm @@",
      "▁ant es",
      "▁ec ri",
      "▁mauvais e",
      "▁ver s",
      "▁conn u",
      "▁perd u",
      "▁eur s",
      "▁dej eun",
      "▁convain c",
      "▁prop os",
      "▁eleg ante",
      "▁pouv oir",
      "▁curi eux",
      "▁curi euse",
      "▁contrarie e",
      "▁courag eux",
      "▁empl oye",
      "▁depourv u",
      "▁jal ous",
      "▁bour re",
      "▁plais ante",
      "▁entrai ne",
      "▁off ense",
      "▁impli que",
      "▁oi @@",
      "▁cin q",
      "▁ign or",
      "▁honne te",
      "c un",
      "m a",
      "m ene",
      "o g",
      "o be",
      "r ise",
      "t on",
      "u res",
      "▁ z",
      "▁ onne",
      "▁s p",
      "▁s pe",
      "▁p ra",
      "▁p ri@@",
      "▁d s",
      "▁d ou",
      "▁d oyen",
      "le man",
      "▁v ol",
      "▁su res",
      "▁i r",
      "▁i t",
      "▁i te",
      "▁i de",
      "▁pa @@",
      "▁et ait",
      "▁f um",
      "▁l an",
      "eu res",
      "our ces",
      "▁b ra",
      "▁b ate",
      "or d",
      "▁ai re",
      "▁re f",
      "▁re nd",
      "▁que lle",
      "ri me",
      "▁me c",
      "▁ch ante",
      "▁av ance",
      "ro nte",
      "ci en",
      "ch ons",
      "▁in di",
      "▁au p",
      "▁au cun",
      "ve z",
      "ve ille",
      "▁du re",
      "me ment",
      "at eur",
      "av ant",
      "▁dans er",
      "▁be be",
      "▁di man",
      "▁ar re",
      "▁res ul",
      "euse ment",
      "▁att ent",
      "▁ex tre",
      "▁ra ff",
      "▁ser @@",
      "▁fa mi",
      "▁gen i",
      "▁mar cher",
      "▁attend re",
      "▁etudi @@",
      "▁dis cu",
      "▁gent leman",
      "▁pret s",
      "ol ie",
      "▁diff i",
      "▁idi ote",
      "▁ins tant",
      "▁peti te",
      "▁interes s",
      "▁or @@",
      "▁ple ine",
      "▁sor te",
      "▁chan @@",
      "▁respons ables",
      "▁impressi onnee",
      "▁cou p",
      "▁cre ati",
      "▁cre ve",
      "▁prop re",
      "▁ep u",
      "▁mign onne",
      "▁fo lle",
      "▁ecou ter",
      "▁gag ner",
      "▁norm al",
      "▁faci lement",
      "▁pat ron",
      "▁prep are",
      "▁trouv er",
      "▁obs erv",
      "▁amer ic",
      "▁supp ose",
      "▁grossi er",
      "▁ress ources",
      "▁egois te",
      "▁spe ci",
      "▁bate au",
      "▁diman che",
      "▁resul t",
      "▁extre mement",
      "a ri",
      "e z",
      "g @@",
      "g res",
      "i le",
      "i ll",
      "i me",
      "n ier",
      "o k",
      "o l@@",
      "s er",
      "s iere",
      "t t",
      "v is",
      "y ons",
      "▁s ent",
      "ou t",
      "ou pe",
      "▁e v",
      "▁e che",
      "▁e nte",
      "▁j olie",
      "▁t ati",
      "▁t ard",
      "▁p ensi",
      "is t",
      "is tes",
      "▁a us",
      "▁a ll",
      "▁d o",
      "▁d ro",
      "▁d ra",
      "▁n u",
      "▁n ot",
      "▁v eux",
      "▁v ole",
      "▁v ois",
      "▁c er",
      "▁c or",
      "▁c i@@",
      "▁i m@@",
      "on e",
      "▁f ous",
      "▁f er",
      "▁f f@@",
      "▁en ce",
      "▁so l",
      "▁so it",
      "ent s",
      "eu g",
      "eu le",
      "▁b re",
      "▁b i@@",
      "▁b la",
      "▁b os",
      "▁b ou@@",
      "ais se",
      "▁re c@@",
      "▁re cher",
      "ri ce",
      "ri ge",
      "▁h u",
      "▁h au",
      "▁me ch",
      "▁me di",
      "▁ch i",
      "▁ch iens",
      "▁ch oue",
      "▁av oc",
      "▁av eug",
      "res se",
      "▁pl an",
      "▁par an",
      "in es",
      "in ion",
      "si ble",
      "▁in f",
      "▁o l@@",
      "ille r",
      "ati ques",
      "▁as s@@",
      "▁pro te",
      "▁sur s",
      "▁tro mp",
      "▁heure uses",
      "▁vi re",
      "▁imp ort",
      "▁ent re",
      "▁ent @@",
      "▁di v",
      "▁di rige",
      "▁pe @@",
      "▁pe int",
      "▁res @@",
      "▁fi able",
      "▁ex @@",
      "▁ex tra",
      "▁ra pide",
      "▁ri ches",
      "▁ret @@",
      "▁grand s",
      "▁grand es",
      "oy er",
      "▁mar y",
      "▁man que",
      "▁app ro",
      "▁is te",
      "▁quel qu",
      "▁cher cher",
      "iere ment",
      "▁age e",
      "▁jou eur",
      "ol u",
      "▁ant s",
      "▁profes si",
      "▁gar s",
      "▁gros siere",
      "▁ven ue",
      "▁sor tons",
      "▁sour i",
      "▁poi ds",
      "▁voy ager",
      "▁disp u",
      "▁disp ose",
      "▁po li",
      "▁mus ici",
      "▁fre res",
      "▁rencont re",
      "ene tre",
      "▁chant euse",
      "▁mari es",
      "▁jal oux",
      "▁ord in",
      "▁reussi r",
      "▁ennu ie",
      "▁astuci eux",
      "▁nerv eux",
      "▁attir ante",
      "▁stu pide",
      "▁satisfai te",
      "▁talentu eux",
      "▁invit @@",
      "▁pie ds",
      "▁pare nts",
      "▁gra s",
      "▁mont re",
      "▁desespe re",
      "▁paress eux",
      "▁exc uses",
      "▁fas cin",
      "▁hum eur",
      "▁op inion",
      "▁pra tique",
      "▁fum er",
      "▁raff ine",
      "▁discu ter",
      "▁diffi cul",
      "▁result at",
      "▁bos ton",
      "▁choue tte",
      "▁avoc at",
      "a de",
      "c re",
      "c er",
      "c ti",
      "c tion",
      "d ra",
      "e te",
      "g u@@",
      "g ique",
      "m er",
      "n s",
      "n ent",
      "o ccu",
      "t tes",
      "▁ us",
      "▁ ue",
      "▁s t",
      "▁s ait",
      "▁s ou@@",
      "▁s t@@",
      "▁e c@@",
      "▁j ou@@",
      "▁t ique",
      "▁p ri",
      "▁p o@@",
      "▁p uer",
      "is es",
      "▁a tion",
      "▁a ti@@",
      "▁n os",
      "le ch",
      "le ve",
      "▁c l",
      "▁c ous",
      "▁su s",
      "▁su per",
      "▁i er",
      "▁pa ye",
      "▁de f",
      "▁il @@",
      "▁pas se",
      "▁et s",
      "▁f r",
      "▁f ri",
      "▁f i@@",
      "▁f l@@",
      "▁f u@@",
      "▁l is",
      "▁l i@@",
      "▁en s",
      "▁so ci",
      "ent ot",
      "qu in",
      "▁un ique",
      "▁tr i",
      "▁ne tt",
      "en ses",
      "oi e",
      "▁b ran",
      "▁b ure",
      "us s",
      "ti r",
      "ti eux",
      "ne ant",
      "ment s",
      "▁g are",
      "▁re e",
      "▁re pon",
      "▁re nds",
      "▁des h",
      "▁des i",
      "▁h ier",
      "▁h eures",
      "▁co p",
      "▁me @@",
      "▁ce ci",
      "▁ch ats",
      "▁ch oque",
      "▁ma @@",
      "▁ma r@@",
      "ro ntes",
      "ci er",
      "ci eux",
      "▁par d",
      "de mment",
      "ot s",
      "ar avant",
      "▁o m@@",
      "ien nes",
      "▁si tu",
      "▁moi ns",
      "pe au",
      "▁pre occu",
      "▁sur mene",
      "▁se @@",
      "it aire",
      "▁an ge",
      "▁fati gu@@",
      "▁ar me",
      "▁r use",
      "▁res te",
      "▁res pe",
      "▁content s",
      "▁ex a",
      "▁occupe es",
      "▁ser ieux",
      "▁cour ses",
      "▁int i",
      "▁gen s",
      "▁gen ere",
      "▁gen er@@",
      "▁attend ent",
      "▁etudi er",
      "▁etudi ante",
      "▁beau te",
      "▁nouve lles",
      "▁cr ue",
      "▁cher chent",
      "▁mal igne",
      "▁dev iens",
      "▁dev enir",
      "▁end ur",
      "▁comm en",
      "▁vie illes",
      "▁mi ll",
      "▁dep rime",
      "▁for te",
      "▁ti re",
      "ver s",
      "ver ti",
      "▁ve in",
      "pon ible",
      "▁aller gique",
      "▁ant @@",
      "▁deran ger",
      "▁gar @@",
      "▁mort s",
      "▁mort es",
      "▁talent u@@",
      "if ique",
      "▁ver ite",
      "▁conn ue",
      "▁conn aiss",
      "▁emb et",
      "▁aff aires",
      "▁surp rise",
      "▁enn uis",
      "▁satisfait s",
      "▁derange e",
      "▁appre cie",
      "▁cha peau",
      "▁prob able",
      "▁parf ois",
      "▁eleg ant",
      "pp ort",
      "▁din gue",
      "▁fo ot",
      "▁tele ph",
      "▁tele vis",
      "▁compre ndre",
      "▁japonais e",
      "▁courag euse",
      "▁enne mi",
      "▁differe nts",
      "▁bi entot",
      "▁faci le",
      "▁cense e",
      "▁craint i",
      "▁prep arer",
      "▁marr ant",
      "▁marr ante",
      "▁fau @@",
      "▁invi tee",
      "▁ass is",
      "▁pris onnier",
      "▁dec ue",
      "▁essa yer",
      "▁ambi tion",
      "▁talentu euse",
      "▁invit es",
      "▁deb ut",
      "▁inde p",
      "▁semb la",
      "▁bienven u",
      "▁devoir s",
      "▁ache ter",
      "▁esp rit",
      "▁autor ise",
      "▁char m",
      "▁proch aine",
      "▁saou l",
      "▁terri ble",
      "▁sai nt",
      "▁nat ure",
      "▁rai @@",
      "▁arro g",
      "▁lib res",
      "▁dejeun er",
      "▁convainc ue",
      "▁bra ve",
      "▁ref lech",
      "▁aup aravant",
      "▁attent ion",
      "▁tati ll",
      "▁aus tra",
      "▁nu lle",
      "▁not res",
      "▁recher che",
      "▁aveug le",
      "▁dirige ons",
      "▁bure au",
      "▁preoccu pe",
      "▁teleph one",
      "▁televis ion",
      "a ll",
      "b lie",
      "c le",
      "c en",
      "d uis",
      "i ons",
      "i onn",
      "j u",
      "m ie",
      "n ois",
      "o p",
      "o li",
      "p it",
      "p he",
      "p lex",
      "p ents",
      "r u@@",
      "t en",
      "t ation",
      "u de",
      "u ve",
      "y o",
      "y @@",
      "▁s k",
      "▁s in",
      "▁e ch",
      "▁j oy",
      "▁j ume",
      "▁t ons",
      "▁t eur",
      "▁t ok",
      "▁p u",
      "▁a le",
      "▁d orm",
      "▁d roit",
      "▁n ouv",
      "le ttes",
      "▁v es",
      "▁v it",
      "▁v o@@",
      "▁c it",
      "▁c r@@",
      "▁c rie",
      "▁c ou@@",
      "re use",
      "▁su b",
      "▁su g",
      "▁su ivre",
      "▁i es",
      "▁m ens",
      "▁m ots",
      "▁pa y",
      "▁de ce",
      "▁de vez",
      "▁il l@@",
      "▁pas @@",
      "▁f on",
      "▁f li",
      "▁f ont",
      "▁f er@@",
      "▁l aisse",
      "▁en nes",
      "▁en vers",
      "▁tr an",
      "en @@",
      "oi aque",
      "▁b r@@",
      "▁b av",
      "▁b ru@@",
      "▁qu es",
      "ais e",
      "ti ens",
      "▁ai res",
      "ne quin",
      "▁g er",
      "▁g i@@",
      "▁g r@@",
      "▁g o@@",
      "▁g uer",
      "▁g obe",
      "▁re nt",
      "▁re me",
      "▁re ndre",
      "▁des @@",
      "▁h ur",
      "▁h orri",
      "▁h ist",
      "▁me mes",
      "▁ch ans",
      "▁av ait",
      "▁av ise",
      "▁av isee",
      "▁ma g",
      "▁ma s",
      "▁pl @@",
      "ci ne",
      "▁te l",
      "▁par tons",
      "ot he",
      "▁fai bles",
      "ce e",
      "ve e",
      "▁pro ches",
      "▁pro ch@@",
      "▁pro gres",
      "▁du @@",
      "▁pre ju",
      "▁se c",
      "▁con ge",
      "it able",
      "▁vrai e",
      "che z",
      "▁an ce",
      "▁vi ent",
      "▁at @@",
      "ir on",
      "▁imp os",
      "▁imp rud",
      "▁ent ir",
      "▁ent ierement",
      "▁gran @@",
      "▁tom be",
      "▁per plex",
      "▁ar bre",
      "▁r ou",
      "▁sa lle",
      "▁sa cre",
      "li c",
      "li er",
      "▁fatigue es",
      "▁fi ance",
      "▁ex ci",
      "▁ex c@@",
      "▁on ner",
      "▁ser pents",
      "▁hab ile",
      "ag n",
      "vi ent",
      "▁dis @@",
      "▁dis ponible",
      "▁ment ir",
      "▁man ge",
      "▁man nequin",
      "▁fin @@",
      "▁app ar",
      "▁ter @@",
      "▁cr oire",
      "▁mal in",
      "▁sou d",
      "▁sou leve",
      "▁reg ime",
      "▁travaille ur",
      "▁dep end",
      "▁ad ul",
      "▁ve @@",
      "▁ve tement",
      "▁hui t",
      "▁ab les",
      "▁ec rit",
      "pi lles",
      "▁ele ves",
      "▁ver itable",
      "▁inc orri",
      "▁inqu i@@",
      "▁eff ronte",
      "▁ro mp",
      "▁sor tir",
      "▁chan c@@",
      "▁aut res",
      "▁cou pable",
      "▁enseign ante",
      "▁idiot s",
      "ul aire",
      "▁sour @@",
      "▁sour i@@",
      "▁sour nois",
      "▁voy @@",
      "▁appre ndre",
      "gu er",
      "▁cha mp",
      "▁cha uss",
      "▁cuis ine",
      "▁parf ait",
      "he m",
      "▁din @@",
      "▁din er",
      "▁din gues",
      "▁forme e",
      "▁incroy able",
      "▁ecou te",
      "▁etran ge",
      "▁gag @@",
      "▁gag ne",
      "▁mari er",
      "▁part en",
      "▁differe nte",
      "▁differe ntes",
      "▁prud ente",
      "▁norm ale",
      "▁bi bli",
      "▁certaine ment",
      "▁craint if",
      "▁mer ci",
      "▁bou l",
      "▁her oi",
      "▁her os",
      "▁ou blie",
      "▁pati ent",
      "▁fau t",
      "▁trouv ent",
      "▁retour ne",
      "▁institu tri",
      "▁astuci euse",
      "iss ons",
      "▁ais s@@",
      "▁erreur s",
      "▁essa ye",
      "▁attir ant",
      "▁quit ter",
      "▁entrai nee",
      "▁satisfai tes",
      "▁nom bre",
      "▁vien nent",
      "▁can ad",
      "▁ge @@",
      "▁gra ve",
      "▁gas pilles",
      "▁inde lic",
      "▁el u",
      "▁pen @@",
      "▁cri tique",
      "▁abs olu",
      "▁chanc eux",
      "▁acc ro",
      "▁acc ord",
      "▁desespe ree",
      "▁plai ntes",
      "▁proch ain",
      "▁appe ler",
      "▁terri f",
      "▁cuisin ier",
      "▁scep tique",
      "▁pon @@",
      "▁pon ctue",
      "▁bat @@",
      "▁habille e",
      "▁endorm @@",
      "▁invite es",
      "▁pois s",
      "▁eng age",
      "▁env iron",
      "▁rel ig",
      "▁mat hem",
      "▁and @@",
      "▁inter ieur",
      "▁ide es",
      "▁lan gues",
      "▁arre ter",
      "▁epu isee",
      "▁americ ain",
      "▁eche cs",
      "▁do cteur",
      "▁sol itaire",
      "▁mech ant",
      "▁paran oiaque",
      "▁prote ger",
      "▁peint re",
      "▁professi onne",
      "▁dispu ter",
      "▁poli ce",
      "▁ordin aire",
      "▁cop ine",
      "▁inti mide",
      "▁mill ionn",
      "▁vein ard",
      "▁connaiss ance",
      "▁indep endant",
      "▁sembla bles",
      "▁austra l",
      "▁tok yo",
      "▁nouv @@",
      "▁guer re",
      "▁horri ble",
      "▁chans on",
      "othe que",
      "▁preju ges",
      "▁impos sible",
      "▁incorri g",
      "▁chauss ures",
      "▁bibli otheque",
      "▁institutri ce",
      "▁absolu ment",
      "▁millionn aire",
      "a lle",
      "a si",
      "a ct",
      "c a",
      "c ons",
      "d is",
      "h o",
      "h ors",
      "i x",
      "i es",
      "i onne",
      "i eres",
      "i euses",
      "i bles",
      "l o",
      "l u",
      "m iere",
      "n ons",
      "n al",
      "o nte",
      "p pe",
      "r oupe",
      "s ons",
      "t ue",
      "z es",
      "▁ w",
      "▁ x",
      "▁s ais",
      "▁t h",
      "▁p eure",
      "▁p u@@",
      "▁p or@@",
      "▁p enetre",
      "is er",
      "▁d ort",
      "▁d ois",
      "▁d onner",
      "▁n er",
      "▁n our",
      "▁n ag",
      "le n",
      "▁v u",
      "▁v an",
      "▁c u",
      "▁c le",
      "▁c les",
      "▁c u@@",
      "▁c ine",
      "re z",
      "▁m en",
      "▁m ons",
      "▁m ois",
      "▁m orte",
      "▁m er@@",
      "▁m eurs",
      "▁m iennes",
      "▁pa role",
      "on ge",
      "on zes",
      "▁de nt",
      "▁de co",
      "▁de c@@",
      "▁de nts",
      "▁de hors",
      "▁il ler",
      "▁et our",
      "▁et onne",
      "▁et r@@",
      "▁f s",
      "▁f le",
      "▁f ant",
      "▁f r@@",
      "▁f uri",
      "▁f lex",
      "ai l",
      "ai @@",
      "ai lle",
      "er ve",
      "▁l ou",
      "▁l on",
      "▁so ign",
      "qu ille",
      "▁ne g",
      "en ue",
      "▁elle ment",
      "▁b u",
      "▁b ri",
      "▁b ois",
      "▁b u@@",
      "▁b as",
      "an c",
      "▁qu asi",
      "ti ons",
      "▁ai nee",
      "▁la ve",
      "▁la ches",
      "▁g l",
      "▁g ri",
      "▁g ard",
      "▁g u@@",
      "▁g ivre",
      "▁g roupe",
      "▁g onzes",
      "▁re r",
      "▁h u@@",
      "▁le @@",
      "▁le nte",
      "▁co o",
      "▁co @@",
      "▁co lle",
      "▁me e",
      "▁ce le",
      "▁ch in",
      "▁ch oc",
      "▁ch ic",
      "▁ma gn",
      "▁pl ait",
      "ci ent",
      "▁te ment",
      "▁par c",
      "de le",
      "▁pour s",
      "▁fai ble",
      "▁o di",
      "▁o pport",
      "ra s",
      "ra phe",
      "rai te",
      "▁am use",
      "▁si x",
      "ce lle",
      "ati que",
      "▁au tre",
      "▁as se",
      "▁pro du",
      "▁moi tie",
      "ge t",
      "ge reux",
      "▁pre v",
      "▁pre mi",
      "▁sur @@",
      "▁se p",
      "▁se duis",
      "di tion",
      "ff ere",
      "▁fort s",
      "it es",
      "▁cont role",
      "ur s",
      "▁vi ve",
      "▁imp uiss",
      "ab i",
      "▁pe t@@",
      "▁pe tri",
      "▁r u",
      "▁r is",
      "▁r ui",
      "▁sa le",
      "li ne",
      "▁content es",
      "▁che v",
      "▁son ge",
      "▁fi x",
      "▁fi le",
      "▁fi dele",
      "▁ex celle",
      "▁on @@",
      "▁on n@@",
      "al ien",
      "▁ser v",
      "▁ser i@@",
      "▁ser ieuse",
      "▁li be",
      "▁peu t",
      "▁cour @@",
      "▁fa c",
      "▁fa chee",
      "▁hab ite",
      "ag es",
      "▁int ro",
      "▁gen e",
      "▁gen @@",
      "▁gen ie",
      "▁gen i@@",
      "▁mar che",
      "▁etudi antes",
      "▁pres @@",
      "▁pres se",
      "▁pres tation",
      "▁dis t",
      "▁ment @@",
      "▁fin alement",
      "▁comme re",
      "▁comme ttre",
      "▁ter re",
      "aine ment",
      "▁nouve l",
      "ct ri",
      "▁marie es",
      "▁end roit",
      "▁reg ret",
      "▁dep endant",
      "▁ti ve",
      "▁ren @@",
      "ol og",
      "ver tie",
      "▁ve in@@",
      "▁pers u",
      "▁ab and",
      "▁ess @@",
      "▁deran ges",
      "▁ec ris",
      "▁mala die",
      "▁mauvais es",
      "et tes",
      "▁ven u",
      "▁conf rontes",
      "▁fier s",
      "▁eff ic",
      "▁emb r",
      "▁emp lettes",
      "▁sor s",
      "▁dan gereux",
      "▁aut or@@",
      "▁francais e",
      "▁ta che",
      "▁der nier",
      "▁dire ction",
      "▁poi gn",
      "▁tot alement",
      "▁meilleur s",
      "▁mo ti",
      "▁cha mbre",
      "▁u es",
      "▁u ti",
      "▁ep ous",
      "▁po mmes",
      "▁ob @@",
      "▁eleg ants",
      "quer ir",
      "▁interesse e",
      "▁consci en",
      "▁consci ente",
      "▁jour nal",
      "▁regard es",
      "▁fo lles",
      "▁rep ro",
      "▁chant er",
      "▁empl oi",
      "▁em iss",
      "▁tre nte",
      "▁enne m@@",
      "▁enne mie",
      "▁sau @@",
      "▁bi z",
      "▁depourv ue",
      "▁confi ant",
      "▁affaire e",
      "ron om",
      "▁mer veille",
      "▁pat he",
      "▁bou c",
      "▁exp er",
      "▁exp ert",
      "▁celibat aires",
      "oue e",
      "▁ass ise",
      "▁obs erve",
      "▁pris on",
      "▁nerv eusement",
      "▁ble u",
      "▁quit te",
      "▁ambi tieux",
      "▁arri v",
      "▁arri ve",
      "▁maigri ch@@",
      "▁vien ne",
      "▁vien dra",
      "▁lun di",
      "▁gas @@",
      "▁semb l@@",
      "▁bienven ue",
      "▁emoti f",
      "▁emoti ve",
      "▁pen ses",
      "▁pos si",
      "▁cri mine",
      "▁suffis amment",
      "▁chau @@",
      "▁matin al",
      "▁viv ant",
      "▁abs ent",
      "▁chanc euse",
      "▁comprehensi @@",
      "▁blesse e",
      "▁paress euse",
      "▁port er",
      "▁nai f",
      "▁nai ve",
      "▁plai nt",
      "▁innoc ent",
      "▁innoc ence",
      "▁rende z",
      "▁effraye e",
      "▁reconn @@",
      "▁reconn aiss",
      "▁nat ation",
      "▁enchante e",
      "▁bat tre",
      "▁maigrich on",
      "▁embarrasse e",
      "▁bl i@@",
      "▁ban c",
      "▁ban que",
      "▁bar @@",
      "▁rel ation",
      "▁appare nte",
      "▁ecri re",
      "▁ecri vain",
      "▁jalous e",
      "▁offense e",
      "▁dou che",
      "▁doyen ne",
      "▁it alien",
      "▁indi ffere",
      "▁fami lier",
      "▁geni ale",
      "▁observ at",
      "▁speci al",
      "▁dra gu",
      "▁import ant",
      "▁div or",
      "▁appro chons",
      "▁musici en",
      "▁difficul tes",
      "▁bran che",
      "▁exa men",
      "▁crue l",
      "▁commen cer",
      "▁crainti ve",
      "▁prisonnier s",
      "▁terrible ment",
      "▁reflech ir",
      "▁dorm ir",
      "▁cit oyen",
      "▁pay s",
      "▁fli cs",
      "▁tran quille",
      "▁rent rer",
      "▁hur le",
      "▁sec ret",
      "▁perplex e",
      "▁soud ainement",
      "▁adul te",
      "▁vetement s",
      "▁champ ion",
      "▁boul ot",
      "▁heroi ne",
      "▁poiss on",
      "▁mathem atiques",
      "▁incorrig ible",
      "▁penetre r",
      "▁cine ma",
      "▁bri ll",
      "▁quasi ment",
      "▁gonzes se",
      "▁chin ois",
      "▁opport un",
      "▁produ cti",
      "▁premi er",
      "▁petri n",
      "▁emiss aire",
      "a me",
      "b u",
      "b er",
      "b all",
      "c is",
      "d a",
      "d ent",
      "e c",
      "f e",
      "f orm",
      "g ie",
      "h ique",
      "h ume",
      "i m",
      "i les",
      "j eun",
      "m ar",
      "m ag",
      "n ch",
      "o ch",
      "p i@@",
      "p ulaire",
      "r onne",
      "s a",
      "t ent",
      "t ronom",
      "u ti",
      "u rer",
      "v res",
      "x i",
      "y si",
      "y oto",
      "z z",
      "▁ u@@",
      "es t",
      "▁s tri",
      "▁s cient",
      "ou dre",
      "▁e res",
      "▁e ve",
      "▁e ch@@",
      "▁e veille",
      "▁j ard",
      "▁j ol@@",
      "▁t s",
      "▁t end",
      "▁t ente",
      "▁t iens",
      "▁t he",
      "▁t aille",
      "▁p uis",
      "▁p ens",
      "▁p uri",
      "is si",
      "▁a re",
      "▁a use",
      "▁a mment",
      "▁a neant",
      "▁je u",
      "▁je u@@",
      "▁d ie",
      "▁d om",
      "▁d o@@",
      "▁n o",
      "▁n oir",
      "▁n i@@",
      "▁n u@@",
      "▁n ier",
      "▁n or@@",
      "▁v ent",
      "▁v in",
      "▁v eule",
      "▁c ro",
      "▁c ra",
      "▁c li",
      "▁c er@@",
      "▁c ri@@",
      "▁c or@@",
      "▁c enses",
      "re nt",
      "re ment",
      "re pide",
      "re tiens",
      "▁su ite",
      "▁i re",
      "▁i mm",
      "▁i ra",
      "▁i rai",
      "▁i que",
      "▁i r@@",
      "▁i g@@",
      "▁m ou",
      "▁m or",
      "▁m ain",
      "▁m ait",
      "▁m ains",
      "▁m or@@",
      "▁pa ro",
      "▁pa ie",
      "▁pa yer",
      "▁pa ix",
      "on om",
      "▁de t",
      "▁de l@@",
      "▁de tes",
      "▁de vient",
      "▁et te",
      "▁et u@@",
      "▁f oi",
      "▁f our",
      "▁f av",
      "▁f enetre",
      "er ne",
      "▁l oi",
      "▁l our",
      "▁l u@@",
      "▁l o@@",
      "▁l oque",
      "▁en que",
      "▁en c@@",
      "un i",
      "ent rer",
      "▁tu @@",
      "▁un i@@",
      "▁ne w",
      "▁ne @@",
      "en de",
      "▁b ro",
      "▁b ain",
      "▁b l@@",
      "▁b iere",
      "▁b ol",
      "▁b ru",
      "te l",
      "or be",
      "ti onne",
      "ti ques",
      "▁ai m",
      "ne ante",
      "▁la che",
      "▁g n@@",
      "▁re mp",
      "▁re pe",
      "▁re m@@",
      "▁h @@",
      "▁h ar",
      "▁h os",
      "▁h ate",
      "▁le ver",
      "▁co l@@",
      "▁me t",
      "▁me ts",
      "▁me chante",
      "▁me mbre",
      "▁me ill",
      "▁ch ale",
      "▁ch o@@",
      "▁ch ou@@",
      "▁ch aise",
      "▁ch retiens",
      "▁av i",
      "▁av enir",
      "▁ma line",
      "▁pl ains",
      "▁pl age",
      "▁pl ace",
      "▁pl ac",
      "ci euse",
      "▁te @@",
      "ain dre",
      "▁par la",
      "ch eur",
      "in uer",
      "ar re",
      "ar ate",
      "▁fai @@",
      "▁fai neant",
      "▁fai neante",
      "si t",
      "si on",
      "▁in dre",
      "▁in uti",
      "▁o c@@",
      "▁o be",
      "ran ger",
      "ien ce",
      "ille z",
      "ati ons",
      "ui te",
      "▁as sit",
      "▁pro m",
      "▁pro m@@",
      "▁moi ndre",
      "▁mon @@",
      "▁pre nd",
      "▁pre cieux",
      "▁pre chez",
      "▁sur vi",
      "me t",
      "di t",
      "▁fort es",
      "▁con se",
      "it oy",
      "co l",
      "▁cont @@",
      "▁cont us",
      "▁cont ag",
      "▁cont inuer",
      "at re",
      "at ure",
      "at hique",
      "▁ca s",
      "▁ca che",
      "▁ca use",
      "▁ca sse",
      "▁ca pit",
      "▁ca fe",
      "▁ca mar",
      "▁an im",
      "▁vi f",
      "▁vi ol",
      "▁y o@@",
      "la c",
      "use z",
      "▁bien @@",
      "ir miere",
      "▁be @@",
      "▁ent es",
      "▁ent er",
      "▁ent i@@",
      "▁trav er@@",
      "▁per form",
      "▁ar d",
      "▁ar ri@@",
      "▁ar ret",
      "▁ar demment",
      "▁ar ranger",
      "▁occu @@",
      "tu me",
      "▁r s",
      "▁r ouille",
      "▁r oute",
      "▁res oudre",
      "▁content er",
      "▁comp tons",
      "▁comp agn",
      "mi te",
      "mi des",
      "▁fi lles",
      "▁fi ables",
      "▁att a",
      "▁ex ter",
      "▁on ere",
      "▁on cle",
      "▁ra c",
      "▁ra s",
      "▁ra jeun",
      "▁ra tionne",
      "▁ho mmes",
      "▁ho tel",
      "▁ri re",
      "▁fait s",
      "▁ser m",
      "ter ature",
      "▁jus qu",
      "▁li cen",
      "▁li vres",
      "▁enf in",
      "▁cour amment",
      "vi du",
      "▁int repide",
      "▁attend ons",
      "cou tume",
      "▁ment ent",
      "▁ment ez",
      "▁man i",
      "▁man i@@",
      "▁comme tte",
      "▁is s@@",
      "▁dem @@",
      "▁dem issi",
      "▁parle nt",
      "▁ter mes",
      "ign es",
      "▁gent illes",
      "▁temp or",
      "▁rejouis sons",
      "ct rice",
      "il s",
      "▁dev rait",
      "▁end s",
      "▁end re",
      "▁dep @@",
      "▁dep ar",
      "▁ti on",
      "▁ti ons",
      "▁ti mides",
      "▁ad @@",
      "ine t",
      "▁aid es",
      "▁habit ude",
      "▁ve lo",
      "▁ve get",
      "▁gro sse",
      "▁impati @@",
      "▁impati ence",
      "▁voi x",
      "▁idi o@@",
      "ier s",
      "▁ec ri@@",
      "▁ec onom",
      "▁ele ve",
      "▁mala des",
      "▁ver @@",
      "▁ver ti",
      "▁conn @@",
      "▁conn ais",
      "▁conn aitre",
      "▁ven @@",
      "▁ven iez",
      "▁conf ronte",
      "▁emb rasse",
      "▁aff ame",
      "▁rev es",
      "ressi ve",
      "▁emp ois",
      "▁ple uve",
      "▁sor t",
      "▁respons @@",
      "▁respons abi",
      "▁intelligent s",
      "▁ac cep",
      "▁ac coutume",
      "▁enn ui",
      "▁enn u@@",
      "▁aut eur",
      "▁impressi onnes",
      "▁court ois",
      "▁ta sse",
      "▁cou rent",
      "▁enseign er",
      "▁idiot es",
      "▁inquie ts",
      "▁ag ressive",
      "▁voy ant",
      "ici e",
      "▁cre @@",
      "▁cre use",
      "▁disp ar",
      "▁disp u@@",
      "▁cha que",
      "▁prop res",
      "▁prop rie",
      "▁atti ree",
      "▁ep oux",
      "▁po l@@",
      "▁po ete",
      "▁po pulaire",
      "▁cuis @@",
      "▁cuis in@@",
      "▁eleg @@",
      "▁impatient s",
      "▁consci @@",
      "▁jour nee",
      "▁jour n@@",
      "▁ten @@",
      "▁ten ace",
      "▁cond u",
      "▁cond u@@",
      "▁regard ent",
      "bi lite",
      "▁ouv er",
      "▁ouv er@@",
      "▁rep arer",
      "▁contrarie es",
      "▁ecou le",
      "▁ecou @@",
      "▁ty pes",
      "ene z",
      "▁chant eur",
      "▁courag euses",
      "▁medecin s",
      "▁part is",
      "▁differe nt",
      "▁sau f",
      "▁sau ve",
      "▁ph ot",
      "▁ph ysi",
      "▁prud @@",
      "▁norm aux",
      "▁simp le",
      "▁faci l@@",
      "▁depourv us",
      "▁surpris es",
      "▁cense es",
      "▁mer de",
      "▁pat ronne",
      "▁bou g",
      "▁her o@@",
      "▁exp ri",
      "▁marr ants",
      "▁ado rer",
      "▁ord res",
      "▁ord onnee",
      "gen ique",
      "▁ou t",
      "▁ou est",
      "▁pati ente",
      "▁reussi te",
      "▁deses @@",
      "▁ennu yer",
      "▁ennu yons",
      "▁obs ti",
      "▁astuci @@",
      "▁pares s@@",
      "▁dec is",
      "▁dec us",
      "▁essa y@@",
      "▁symp athique",
      "▁stu pi@@",
      "▁tant inet",
      "▁deg our",
      "▁deg oute",
      "▁deg out",
      "▁ble ue",
      "▁amer ique",
      "▁arri ver",
      "▁nom s",
      "▁deb out",
      "▁lun atique",
      "▁gas p",
      "▁ingen ieux",
      "▁ingen ieuse",
      "▁semb l",
      "▁impressionne es",
      "▁oi t",
      "▁el ue",
      "▁pen sez",
      "▁suffis @@",
      "▁esp oir",
      "▁mont ra",
      "▁chau ve",
      "▁viv @@",
      "▁abs orbe",
      "▁grossi eres",
      "▁autor isee",
      "▁comprehensi f",
      "▁comprehensi ve",
      "▁adore nt",
      "▁pi re",
      "▁pi onnier",
      "▁pense es",
      "▁car di",
      "▁lit terature",
      "▁conc ert",
      "▁conc erne",
      "▁conc entrer",
      "▁appe l",
      "▁appe lle",
      "▁cuisin er",
      "▁cuisin iere",
      "▁reconn ais",
      "▁scep @@",
      "▁puiss ant",
      "▁vis ite",
      "▁min u",
      "▁min ce",
      "▁endorm ie",
      "▁roman cier",
      "▁photo genique",
      "▁maigrich onne",
      "gne z",
      "▁k yoto",
      "▁k arate",
      "▁pois @@",
      "▁coin cee",
      "▁rem ue",
      "▁rem onte",
      "▁mat h",
      "▁appare ntes",
      "▁convainc us",
      "▁jalous es",
      "▁plaisante z",
      "▁z @@",
      "▁sp len",
      "▁vol ont",
      "▁rend ons",
      "▁indi vidu",
      "▁arre te",
      "▁fami l@@",
      "▁geni al",
      "▁interess ante",
      "▁coup ables",
      "▁creati f",
      "▁creati ve",
      "▁epu ise",
      "▁observ ateur",
      "▁americ aine",
      "▁grossier s",
      "ari en",
      "▁sent ir",
      "▁ev @@",
      "▁pensi @@",
      "▁all @@",
      "▁dro gue",
      "▁dro les",
      "▁vois ins",
      "▁fer mes",
      "▁bla guer",
      "▁hu m@@",
      "▁hau teur",
      "▁inf irmiere",
      "▁tromp es",
      "▁extra verti",
      "▁extra vertie",
      "▁souri re",
      "▁musici @@",
      "▁pratique ment",
      "▁raffine e",
      "▁difficul te",
      "▁st resse",
      "▁pri vee",
      "▁sus pe",
      "▁sus pi",
      "▁paye e",
      "▁lis ent",
      "▁nett oie",
      "▁repon se",
      "▁repon dre",
      "▁desh ab",
      "▁desi reux",
      "▁choque e",
      "▁pard onne",
      "▁situ ation",
      "▁arme e",
      "▁respe cte",
      "▁genere ux",
      "▁embet ant",
      "▁foot ball",
      "▁bienvenu es",
      "▁tatill on",
      "▁sk i",
      "▁ech oue",
      "▁joy eux",
      "▁sug ges",
      "▁fon du",
      "▁bav ard",
      "▁ger ant",
      "▁reme ts",
      "▁hist oire",
      "▁mag as",
      "▁imprud ent",
      "▁romp s",
      "▁parten aires",
      "▁nombre uses",
      "▁indelic at",
      "▁terrif ie",
      "▁ponctue l",
      "▁relig i@@",
      "▁professionne l",
      "▁van ne",
      "▁mons ieur",
      "▁deco is",
      "▁fle urs",
      "▁furi eux",
      "▁soign eusement",
      "▁coo pe",
      "▁cele bre",
      "▁magn ifique",
      "▁seduis ante",
      "▁rui ne",
      "▁libe re",
      "▁intro verti",
      "olog ie",
      "▁effic ace",
      "▁embr ouille",
      "▁dernier s",
      "▁moti ve",
      "▁uti l",
      "▁epous er",
      "▁merveille use",
      "▁pathe tique",
      "▁exper ience",
      "▁possi bilite",
      "▁apparente es",
      "▁observat rice",
      "▁opportun iste",
      "▁scient ifique",
      "▁jard in",
      "▁puri t",
      "▁veule nt",
      "▁cli ent",
      "▁mait resse",
      "▁paro les",
      "▁fav eur",
      "▁bru y",
      "▁repe ter",
      "▁hos ti",
      "▁meill @@",
      "▁chale ur",
      "▁plac ard",
      "▁inuti les",
      "▁capit aine",
      "▁anim aux",
      "▁viol on",
      "▁perform ance",
      "▁exter ieur",
      "▁licen cie",
      "▁veget arien",
      "▁responsabi lite",
      "▁splen di",
      "a k",
      "a m",
      "a @@",
      "a pe",
      "a les",
      "a mb",
      "a sse",
      "a lite",
      "b um",
      "c tu",
      "d at",
      "d able",
      "d roit",
      "d ail",
      "e e",
      "e l",
      "e ci",
      "e tique",
      "g ole",
      "g ir",
      "g raphe",
      "h ous",
      "h eure",
      "i z",
      "i ch",
      "i ge",
      "i nte",
      "i c@@",
      "i ente",
      "i as",
      "i onnee",
      "i dent",
      "j us",
      "l m",
      "l in",
      "l at",
      "l om",
      "l ig",
      "l oy",
      "l aire",
      "m n"
    ]
  }
}